[PAD]
[UNK]
[CLS]
[SEP]
[MASK]
!
"
#
$
%
&
'
(
)
*
+
,
-
.
/
0
1
2
3
4
5
6
7
8
9
:
;
<
=
>
?
@
[
\
]
^
_
`
a
b
c
d
e
f
g
h
i
j
k
l
m
n
o
p
q
r
s
t
u
v
w
x
y
z
|
~
¡
¢
£
¥
®
¯
°
·
»
¼
½
¾
¿
æ
ø
π
ᄀ
ᄁ
ᄂ
ᄃ
ᄄ
ᄅ
ᄆ
ᄇ
ᄈ
ᄉ
ᄊ
ᄋ
ᄌ
ᄍ
ᄎ
ᄏ
ᄐ
ᄑ
ᄒ
ᅡ
ᅢ
ᅣ
ᅥ
ᅦ
ᅧ
ᅨ
ᅩ
ᅪ
ᅫ
ᅬ
ᅭ
ᅮ
ᅯ
ᅰ
ᅱ
ᅲ
ᅳ
ᅴ
ᅵ
ᆨ
ᆩ
ᆪ
ᆫ
ᆬ
ᆭ
ᆮ
ᆯ
ᆰ
ᆱ
ᆲ
ᆶ
ᆷ
ᆸ
ᆹ
ᆺ
ᆻ
ᆼ
ᆽ
ᆾ
ᇀ
ᇁ
ᇂ
‐
‑
–
—
‘
’
‚
“
”
•
…
″
⁄
€
⅓
⅔
⅕
⅝
−
■
◆
★
♥
、
ツ
一
二
代
僧
发
器
富
明
机
次
毒
波
洪
烧
百
素
聪
贤
质
高
##ᅢ
##ᄒ
##ᅡ
##ᆨ
##ᄉ
##ᆼ
##a
##n
##t
##o
##e
##p
##r
##u
##d
##s
##i
##l
##j
##y
##c
##h
##v
##q
##w
##m
##f
##g
##z
##k
##x
##ᅵ
##ᄂ
##ᄆ
##ᅥ
##ᆯ
##ᄅ
##ᅳ
##ᄐ
##ᄌ
##ᄋ
##ᅧ
##ᄀ
##ᄄ
##ᆷ
##2
##4
##9
##b
##ᆸ
##ᆫ
##ᄇ
##ᅮ
##1
##ᅩ
##ᄎ
##ᅦ
##ᆻ
##ᄃ
##ᅪ
##★
##½
##ᅯ
##8
##7
##ᅴ
##ᅨ
##ᅬ
##0
##6
##ᅱ
##3
##5
##ᆺ
##ᅭ
##ᇂ
##ᅲ
##ᄍ
##ᄏ
##ᄑ
##ᆱ
##ᆽ
##ᇀ
##⁄
##ᇁ
##ᆭ
##ᄈ
##ᅣ
##ᆹ
##ᄁ
##ᆾ
##ᄊ
##ᆲ
##ᆰ
##ᅫ
##ᅰ
##ᆮ
##ᆩ
##°
##¼
##ø
##♥
##¾
##⅔
##ᆬ
##ᆪ
##⅓
##æ
##ᆶ
##®
##¢
th
##er
the
##in
##on
##at
##en
##ed
##es
##or
##an
##ing
in
##ar
an
##al
##it
to
##ou
of
##is
##as
and
##ic
##om
##ion
##re
##id
##ent
##il
##el
##ec
wh
##et
##ot
on
##st
that
st
##ut
##ay
##ad
for
##le
##ac
##ro
##am
it
##ve
##ur
##ers
##ly
##ig
##ol
be
re
he
is
##ow
##ir
sa
##im
##ith
sh
was
as
##ter
said
with
##se
at
##ch
##ation
##ver
##th
al
fr
##ill
##ere
##est
ch
##ld
mr
##ce
con
ne
com
##ul
##nd
his
##ess
tr
ha
##em
##and
##ag
##igh
##um
pr
##us
##ts
##iv
##ke
##pp
##ear
##ate
##ain
not
but
pro
we
by
from
##op
de
ex
##ore
who
##ould
su
se
has
##art
##oo
##ity
have
##ies
##oc
##all
un
##os
are
ab
le
you
or
##un
##if
##ect
pl
##ment
sp
had
##ive
##ist
##ast
##out
##gh
##ab
they
##ial
ac
##ud
ar
wor
##ort
##ant
##ome
##ust
##ight
##ie
##ard
##ap
##ack
##ak
new
this
##ost
##ich
year
##end
cl
she
off
##our
af
comp
##her
go
ad
about
##ong
##ough
##ell
##ge
li
br
her
man
en
one
out
##ound
am
their
##uc
20
do
more
##oun
ag
were
##ice
##ans
will
gr
##ame
rec
its
##one
would
##ub
per
all
which
been
##ous
rep
##ip
up
so
me
##ions
##ated
##ally
int
##ine
when
tw
can
after
##ia
tim
res
##iz
##ib
dr
##ue
pe
there
##day
##ks
inc
##ign
##au
##ide
##aw
ev
##ry
##ure
exp
part
##od
##ors
like
some
fir
##av
##ach
##ace
over
pol
mar
##mp
bec
##ff
##ish
##age
cont
##ther
cr
##ood
##so
##ates
##qu
##ake
app
no
##ence
dis
##lic
sc
than
##ber
##ents
##ire
what
##ary
##ely
fe
two
##ople
people
##ind
##ose
##ian
##pt
also
##ond
##king
bl
##act
if
play
##ations
##ord
str
qu
##own
##og
##int
just
##ass
car
##ount
##ance
mon
inter
col
them
him
dec
##ree
##ked
last
first
##amp
##ical
other
te
acc
pres
kn
##ays
co
us
##ings
##ep
##ens
##ail
##ite
##ade
ms
time
##ied
##00
into
##tor
201
##wn
##ump
##man
my
ro
comm
could
jo
years
ser
inv
##ile
##ase
fl
##ited
op
##ublic
##able
compan
##urn
##ang
sec
how
##itt
19
##ov
##ild
el
pre
##eric
most
par
##ult
did
##ause
sch
##anc
##lud
ind
fin
law
##ition
may
americ
rel
##fer
now
##ater
##illion
##gr
po
ever
mu
##ident
offic
des
##ick
##mer
any
even
trump
##hing
und
##orm
back
includ
##ork
##old
bu
att
##cent
many
##ning
##oup
cons
imp
because
get
##reat
call
ph
##duc
##ok
wr
show
where
##other
count
wee
##enc
##ook
work
hel
again
##ict
state
don
add
act
##rop
under
thr
##led
##are
bet
##ft
##ious
percent
##iss
##ason
##ational
##fore
cour
rem
long
bo
only
before
##ath
city
##ery
min
ass
high
bro
##als
##vel
gover
##arly
##ues
ob
##iew
lead
art
say
company
president
##ert
every
##land
cent
york
own
##ra
three
our
govern
states
##ets
those
made
through
##ince
##oth
sm
gu
world
##ink
dem
invest
##row
end
united
run
##ating
stud
gen
##hn
want
dep
sy
##ove
##ug
med
##les
war
month
##ool
then
week
##gan
team
supp
##form
##arg
##ix
while
see
##lo
##aking
group
make
##uring
##ting
down
##we
##ily
def
##ities
reg
much
million
way
ret
##ivers
still
sur
ins
inst
##ct
##ful
fam
##elf
##az
##ected
camp
##air
##ock
##eral
mem
found
##atch
dire
bus
against
american
school
day
##ife
##ory
##ise
ke
start
##ecut
sen
vot
##ual
##io
government
though
##ons
##ement
##und
##ier
win
eu
##way
well
game
##ouse
help
public
ter
##oss
em
##att
official
##ward
im
##ved
ma
##ower
know
##ne
recent
sl
##ists
##ics
since
wom
your
##ven
##ather
##its
##ton
mark
##omet
##ief
bas
open
ve
000
home
##ether
##ames
##oll
200
##ner
##ision
set
going
bel
##ying
good
need
##ble
being
four
disc
##ash
old
including
##uss
##iel
these
stre
##ection
##ern
##son
##ros
polit
##ered
ban
##ives
bar
dif
##xt
think
pers
##ative
##ale
##ling
somet
big
##istr
cor
another
news
##ants
##con
season
report
court
eff
here
second
##hip
mus
gre
id
europ
##lin
far
europe
##urs
adv
cap
trans
hand
leg
called
##ele
during
republic
##iness
take
around
country
aut
10
very
sign
sub
##pr
cur
##cc
##ina
##ave
##br
##ange
##ms
red
turn
##oot
##ys
##view
##ah
house
##ices
times
produc
tal
both
few
##aign
cle
mil
campaign
##orts
should
conc
support
##ri
ann
##ments
##ible
##ress
right
does
party
clint
national
nor
business
rest
real
univers
stat
char
prof
##ama
sim
seem
##olog
clinton
put
soc
##bers
##ording
police
##ull
former
resp
##ital
##ived
##ty
##rat
ra
##ving
det
care
##ced
##ime
##ene
fil
##ility
##ized
har
es
spe
mov
##ency
head
next
fed
night
##orn
child
same
##ism
according
officials
##ten
sw
plan
life
##ures
##ph
##ween
too
between
##iving
bre
econ
conf
econom
ear
##ines
prov
##uct
##rol
build
left
air
##ually
emp
vi
democ
##ric
case
never
##ady
##artment
##ont
##red
intern
person
might
##eng
##tory
##ention
##ific
##oney
met
brit
##per
##let
loo
del
##alth
##pped
##ield
cal
maj
told
vis
##ular
##ird
arr
among
##lish
women
opp
cre
coll
ed
contin
quest
star
happ
point
##up
sou
iss
##ights
##ittle
execut
##nes
##gest
ext
sever
##ned
##vers
ste
##ross
##itch
little
ref
pay
##ee
lot
##ained
hard
differ
come
family
post
mod
such
##els
##min
progr
##ren
face
manag
##earch
prom
use
##rib
five
##akes
serv
##ote
##osed
spec
##res
num
less
eng
let
university
democrat
est
##ator
youn
##ize
##ury
sal
top
exper
power
place
find
wed
money
##iting
pass
major
used
got
##augh
fri
really
best
wal
friend
val
##med
stand
prop
something
##bs
men
took
white
prot
##ged
##ought
##uck
added
oper
pop
young
attack
loc
tec
##ired
inf
##by
appear
direc
##ior
##ik
market
allow
auth
later
##iam
##ody
##ient
##ead
##ness
incre
chief
center
each
test
shar
##ted
##ves
rece
room
six
##velop
came
whether
black
##ically
##ially
##ience
##gin
tues
tuesday
##used
investig
small
great
design
hop
pat
days
##ute
requ
john
##ised
##ution
director
won
##atur
several
lo
obama
companies
commun
deal
fac
##ject
##ew
organ
beh
sing
##ley
political
##iet
ago
##ued
financ
##ising
develop
hal
##iver
jud
kill
often
##gy
##stem
##ering
##tern
without
hum
##line
##ects
fund
mid
republican
past
series
hour
mor
system
feel
known
##par
##ided
once
members
crit
monday
colle
months
ta
health
aff
##thing
sk
##ages
mrs
european
##ister
##loy
##ral
deb
become
grow
return
##iday
keep
move
street
class
federal
unt
partic
department
##ored
office
##ways
thurs
thursday
##ased
better
author
polic
##nesday
wednesday
interview
sum
record
asked
cost
gl
secur
program
billion
##ands
larg
early
different
third
##iven
##ably
rele
ent
interest
##ret
##ending
##ended
pa
things
meet
remain
##room
##ott
miss
##ony
##une
proble
##self
ang
away
doc
making
appro
sug
15
terr
friday
look
ball
main
##rap
poss
read
children
##ense
##enn
##ney
broad
av
2014
##side
kind
##imes
prev
control
eas
executive
least
games
yet
bill
trad
ide
##ession
media
sent
distr
north
watch
expl
##ately
##ald
##cept
pros
milit
##ces
consid
##ened
wrote
##ians
view
list
russ
##over
bank
until
##ins
##0s
began
##pl
net
south
chang
##ined
announ
##der
##thers
##imin
ap
fact
near
##ases
along
music
hom
sand
line
techn
fall
went
rul
arg
##ollow
##str
##ison
china
direct
general
priv
##ush
##omin
always
players
belie
indust
free
##igr
lar
based
change
12
pos
##ru
research
##ball
##ench
coun
30
step
perform
11
says
##ators
whose
sund
half
follow
conv
statement
fight
hit
##ring
viol
mom
working
##ike
union
##ones
others
ir
##acy
led
dav
##ides
washing
##ett
repres
lawy
##aly
##ark
cand
##ograp
##aps
ca
students
compet
##ague
##ified
lab
security
##ints
name
international
suggest
##co
washington
didn
##aff
##ready
park
already
##ries
shot
short
financial
##por
number
##wh
##atter
calif
199
press
##erv
18
lik
##less
why
import
alm
foc
side
social
sol
organiz
##cess
##yp
enough
pot
ant
history
##ival
event
##aim
trying
west
##be
hold
building
employ
reach
##ology
##ium
gener
desc
mo
##rem
decision
water
chr
la
##ees
sus
foot
sunday
board
father
death
island
##aken
across
agre
nearly
##ane
##bor
phot
mess
trav
##app
equ
los
round
almost
##ertain
field
##ades
story
##cer
inform
##ger
form
hot
vote
vide
gun
late
##ever
candid
##lam
elect
mc
##ively
coach
dou
curr
san
sell
question
##erman
mother
having
wanted
recently
wall
vic
refer
mich
food
concern
love
succ
saying
##ract
invol
pain
imm
admin
##ember
book
leaders
sit
tell
started
behind
##sel
##ential
rights
begin
clear
drug
fire
league
##ender
il
lost
##ature
wa
champ
conn
low
job
##ently
thing
given
chall
gir
thought
##ls
cover
give
cond
local
represent
sex
##ata
##ured
human
##ried
##ats
mill
administr
##amed
glo
##off
committ
large
ris
tax
final
britain
##ission
military
##utes
train
close
america
esp
level
enter
policy
product
film
cust
##ondon
port
ran
cult
##lex
full
##ards
judge
outside
##ars
##itions
share
london
##ech
points
word
success
##idence
live
##arter
neigh
##oci
##ences
shoot
college
became
##ograph
cut
##book
played
reason
travel
associ
charg
fail
green
susp
son
strong
held
ge
##que
##ann
##ugg
important
##ler
##bo
doing
fre
mur
##aces
june
hill
buy
##uary
##elt
ll
##inc
special
mass
voters
##rew
regul
phil
spok
##aker
instit
industry
describ
justice
quarter
##gress
land
received
process
summer
dev
##itor
claim
light
islam
##osp
##icle
laws
coup
##hood
gold
mer
seen
taken
fell
service
rev
goal
tog
super
##ances
lim
##ank
expected
saf
##bal
##tain
25
vir
prim
club
div
using
able
lear
##urch
election
sold
weeks
together
##aper
ident
che
fav
##rupt
pitch
##stand
flo
friends
hours
base
likely
squ
##iec
grand
ju
inj
mis
##itter
capital
muse
area
done
workers
legal
apr
space
fig
##for
clos
private
sanders
deep
effect
exc
tit
taking
16
jour
##eter
announced
sil
grad
quick
13
sn
woman
looking
##ished
course
##ests
fut
seven
2015
198
agency
custom
race
##aged
works
certain
##aster
firm
april
economic
prosecut
instead
march
himself
fun
##ared
mag
##iter
fore
50
educ
lat
##ico
satur
pub
today
must
typ
##ipp
famil
william
getting
##aur
seemed
host
worked
ur
mean
##dle
##ape
##ference
enc
er
14
non
aud
activ
100
emer
##itional
democratic
tur
information
civ
tele
##ners
coming
prob
##venue
##vision
vol
##uce
den
front
role
occ
david
##ults
leave
threat
##irc
saturday
tou
discuss
bur
stay
nation
simp
french
museum
bene
##ift
east
##uit
##ming
email
facebook
british
##aced
spokes
##uge
online
##fic
reported
17
creat
issue
unc
complet
break
bad
2013
relations
town
hear
neighbor
##ural
chair
neg
video
##uel
career
hosp
project
gave
##unch
secret
californ
##lyn
earl
##omp
pract
draw
moment
stor
administration
##asing
##ots
##bert
##ument
angel
turned
try
match
global
german
sure
circ
idea
california
##akers
sometimes
ham
sales
2012
##ounds
compl
single
##ither
##iously
##oke
##uction
ener
however
##dd
comb
##aughter
doesn
civil
impro
##selves
##sh
else
restaur
community
pan
##ensive
james
hous
problem
countries
##ients
groups
terror
pal
bed
someone
data
minutes
bring
##oice
cam
tour
##eck
simil
rich
force
central
hol
living
bal
foreign
brook
cases
##ᅳᆫ
tem
toward
meeting
##lished
##ortun
makes
consum
visit
##idents
##umb
future
##ality
ey
##ening
##ament
##work
cast
questions
##essor
##uff
soon
##yle
ep
40
price
desp
tre
couple
##oint
##iod
arm
##itting
infl
morning
dist
eight
officer
conference
je
##uz
economy
##inese
hope
focus
rad
cred
presidential
within
ele
##body
##imate
decades
everything
immigr
gradu
earlier
chinese
district
piec
stop
wear
brooklyn
meas
##haps
senator
##ional
manh
##nal
period
nothing
sun
spent
##attan
ali
critic
track
orig
##key
dead
saw
americans
favor
##oud
republicans
conserv
running
perhaps
oil
killed
felt
review
plans
result
##port
anything
playing
##ecially
##ims
##iety
especially
television
afric
batt
##ilt
arch
opt
cele
mind
gar
##ael
trip
##ago
shows
manhattan
##get
body
wind
##lined
boo
mot
middle
investigation
ver
player
celebr
trade
minister
christ
yan
donald
diffic
difficult
treat
possible
##ung
probably
crow
##itive
account
officers
technology
aw
tex
commission
aust
appe
present
lawyer
##ibility
energy
bit
fear
analy
age
comment
express
manager
##hold
reb
##iding
approach
recall
##oman
dro
comes
despite
sports
helped
victory
##istic
##thern
strate
var
medical
include
lower
##ham
##ows
strugg
##sy
inside
init
released
fans
islamic
##inking
services
believe
everyone
article
sense
##ging
##iers
repl
schools
197
21
##ᅳᆯ
##berg
rose
##head
ath
chic
##bur
journal
rather
stock
died
##ample
origin
gay
oly
song
##ray
fur
##ids
tried
talk
olymp
surpr
inn
yanke
vers
##oy
flor
fair
##stone
syr
similar
insp
##ky
personal
parents
popular
vill
##ij
lives
doll
##unt
##iff
twitter
runs
rules
tot
##isl
##erc
##ains
brief
##ker
staff
thous
matter
##yn
bey
trial
issues
swe
allowed
##apan
##though
defense
although
aver
##ges
committee
wife
##af
loss
paris
professor
japan
effort
##ify
themselves
theater
opportun
mult
legisl
needed
geor
hall
##hib
scr
mayor
member
jack
senate
signific
offer
leader
organization
insur
crowd
##aut
##이
knew
experience
moved
daughter
##ino
forward
neighborhood
ho
##ode
attacks
potential
angeles
##atives
sat
##sw
doz
##time
vict
##omb
deter
brought
road
##atic
cris
seems
benef
understand
senior
adm
included
study
continue
russia
##kn
pen
expect
sett
jan
leav
cit
chicago
##ault
position
##itz
order
action
##ashion
prices
michael
din
##ream
france
congress
##epend
actually
env
ground
term
century
ple
longer
leading
independ
investors
hospital
showed
self
mex
democrats
##izing
ber
current
unl
described
fashion
##oming
gall
push
##ada
##leg
const
histor
growing
athlet
##ends
problems
##ularly
##ude
respond
rock
appeared
##reme
lu
access
##oon
pred
##esh
196
dam
prison
##where
mad
yankees
feet
heav
dig
award
alb
pet
deliver
evidence
teams
entire
advis
##use
##ites
##rael
ny
##ai
cop
respons
##omm
performance
rac
apple
slow
mets
champions
education
example
##ability
opened
speech
challeng
labor
israel
unf
square
attention
development
heart
paid
consider
##read
floor
particularly
hor
address
higher
ways
decided
detail
shooting
lin
##ested
##ivid
jobs
##mb
church
ord
relationship
significant
##eth
##cl
##gle
itself
largest
primary
##ulation
whole
avail
##aft
##sc
efforts
raised
authorities
sched
assist
##ule
##ective
answ
franc
crimin
pret
built
quickly
pur
increasing
24
ended
bi
goo
site
##eless
##ceed
growth
risk
##uing
created
hotel
22
corpor
##medi
amb
box
overs
beat
abs
accept
brand
soft
##essional
##lear
adding
investment
tick
##ron
##iron
oppos
disp
contr
williams
means
winning
residents
fill
##ᅡᆫ
declined
named
biggest
thousands
deg
bay
##oring
##uation
estab
dest
##fully
##aught
employees
##anger
pul
create
propert
pict
##ey
##pping
involved
mos
conduc
nomin
dan
sel
hon
chance
events
camer
targ
##acter
##oved
july
nom
##band
county
500
bud
##rect
##rown
braz
violence
title
analyst
hund
stra
boy
##ength
domin
kore
rate
scored
hur
search
modern
##vert
hundred
gard
jew
results
influ
nations
emb
bloc
sup
cub
fem
van
immedi
dog
##ogn
maybe
wood
##anch
latest
##ida
spokesman
environ
common
##aries
rob
king
forces
convers
spot
provide
fif
##eleg
sto
charges
available
##back
happened
cross
mal
pick
wasn
##atory
hus
worth
individ
families
ul
##ex
##eated
##ena
##jects
style
##cement
##go
disapp
remains
##ecess
movie
wild
acqu
increase
phone
lack
changes
poor
ill
fast
##ental
cann
scre
miles
trust
##cil
anti
##aging
doub
environment
##ox
##vey
##icted
23
##ese
anyone
medic
surv
paul
##tim
##yan
brown
candidate
stage
suff
complain
cup
mart
##wood
opening
further
nar
either
ahead
restaurant
nine
russian
brazil
whom
google
iran
oh
weekend
hands
##gn
anim
##erson
##ops
considered
dress
protect
ten
looked
wrong
texas
average
##oph
blue
pic
fourth
phys
pack
##ination
##ider
lawyers
message
##ki
store
includes
photograph
##iny
##onse
markets
continued
value
##ety
separ
##action
constr
crisis
nomine
beyond
bord
lou
##ille
sound
##istan
calls
artist
##estern
##ster
veh
agreed
bir
28
playoff
tourn
##oti
production
redstone
##know
born
##wor
avo
response
beaut
scient
##uted
student
editor
refl
letter
previous
customers
prime
spring
mostly
attem
appeal
##roduc
tom
color
2011
chairman
intell
warri
finally
words
character
johnson
bag
acknow
offered
acknowled
##ara
carry
demand
convention
mount
apartment
criminal
lang
prem
##na
##idge
cell
##ips
trou
##uments
sept
##ams
discover
estate
training
bor
mix
##iant
cash
##ension
prepar
advoc
propos
ira
##lins
battle
##tors
above
blood
rates
hillary
##utions
##olf
income
artists
agreement
que
epis
network
##olution
##itted
bond
##ana
door
tel
##ches
management
bott
##rig
webs
husband
negoti
gone
accused
safety
##ustr
secretary
##fort
indian
2008
ess
politics
pressure
concerns
deleg
26
vice
##ding
##itten
restr
bern
majority
counter
culture
fest
rod
fort
contrib
require
recogn
starting
ken
##yc
florida
bath
mic
natur
banks
published
##enge
debate
attor
figure
changed
bought
rap
supporters
reached
##iction
costs
experts
walk
mater
##he
revenue
exhib
release
girl
iraq
der
##cast
warriors
##ipped
##reg
suggested
eventually
supreme
##isions
2010
perf
traditional
books
contract
germany
river
heard
cancer
sle
largely
easy
prosecutors
rough
##ises
##ements
cannot
housing
total
##는
##aded
liber
straight
noted
exist
extra
council
##iring
afgh
capt
##ford
true
quite
amaz
sour
##다
##ona
##ounts
francis
eth
##enced
moving
paper
areas
model
pretty
necess
homes
hundreds
kept
annual
leaving
##orter
##ban
##ipt
movement
matt
##cel
goes
##ously
needs
takes
huge
credit
championship
gas
##airs
ben
##arily
isn
sho
tough
african
simply
opportunity
35
wond
##den
expand
giving
jose
drive
##uled
trib
imag
ask
card
talking
wel
nominee
particip
weap
minute
musical
target
##abb
enfor
products
27
cat
sale
wants
##lus
obs
numbers
decade
##rel
##pper
conservative
thinking
teach
##ilities
terms
##icles
collection
passed
george
grew
afghan
prince
##uses
sem
feat
arrived
happen
mel
cruz
febr
prec
earn
engine
february
##ha
followed
older
esc
speak
displ
evening
society
challenge
dut
##gency
returned
langu
##ston
parts
victims
lif
decl
command
##mber
beginning
atl
reports
nove
curry
association
##ris
married
spoke
guy
estim
november
serious
owners
guard
##ez
recip
cas
lived
##iled
broadway
candidates
january
memor
##ny
##ented
draft
governor
founder
dollars
dism
seeking
england
norm
sort
shares
rout
##come
coal
internet
original
60
##kin
failed
fly
advert
crime
collect
mcc
tor
##woman
partners
stories
austral
attorney
comput
served
material
ren
beach
remember
tournament
bow
##etic
amount
reporters
ones
institute
bab
veter
owner
debt
##mar
operations
##ager
western
##imb
##iance
places
smith
regular
filed
page
key
newsp
raising
meant
english
frank
di
danger
exch
ach
wid
##hen
gather
join
hers
##light
path
ryan
audience
aug
alone
ability
##lando
situation
improve
degree
cities
##aled
##oper
##field
musl
bedroom
syria
alex
##rec
##abor
robert
attract
written
defend
clean
lines
complex
2016
album
orlando
sport
focused
##house
mexico
##uf
uns
closed
millions
bull
soccer
citiz
fifth
tv
spending
related
##porary
dark
scene
2009
piece
dance
##ched
bomb
region
lawsuit
voice
particular
glass
document
##vin
##ters
##oted
##ste
authority
natural
ut
##isc
##iling
lay
nuc
oct
introduc
usually
practice
increasingly
##yr
##entially
comments
oppon
property
atlant
master
##town
divers
##ique
except
indic
rise
##ror
emot
planned
double
range
ready
attend
posted
recalled
digital
29
##wide
##veland
rh
##iest
plat
festival
website
##ax
##ware
##erve
surr
cleveland
archit
village
coo
shut
powerful
sexual
##iar
princ
contem
cars
migr
##icks
##lement
##ully
joined
##eed
sea
mist
aftern
correct
nuclear
exam
experi
31
##aming
exact
acad
##makers
##fl
##arm
reve
enj
##ization
cause
signed
subst
fighting
fix
peace
appar
tech
avenue
communic
nearby
scheduled
##oping
retired
progress
constit
dream
##ps
##gg
relig
demon
female
mach
##ires
version
birth
fle
##to
choice
trail
designed
graduated
##ob
##ga
repeated
calling
minor
academ
suit
spr
connect
45
##ease
compared
ker
##ket
##igence
span
happy
sens
thom
##ville
wealth
consult
raise
confir
protest
afternoon
policies
partner
carol
burn
##jected
##yl
measure
athletes
immediately
이
throw
attempt
roll
size
##ilton
block
patients
programs
encour
fresh
##ounded
guys
believed
learned
pun
parties
era
##val
##my
speaking
catch
yes
##omes
purs
spir
##aval
##aily
defin
nyt
louis
science
ruling
bost
fer
##aum
##itness
independent
table
##oles
willing
assault
subject
refuge
cultural
perfect
##ato
stan
clin
professional
achie
perm
novel
watching
baseball
finished
die
ens
competition
francisco
##ront
goals
speed
specific
drugs
daily
penn
station
##agues
collins
eastern
##han
impact
fan
looks
sharp
wait
charged
boston
andrew
check
feeling
##van
offering
poll
addition
profit
standard
scott
ros
rule
##yal
provided
selling
language
dom
struck
southern
required
hearing
##ishing
##ground
jones
names
charge
strategy
dozen
inning
throughout
smart
larger
band
mat
rare
bron
bush
sought
safe
pit
vac
##la
plays
politic
champion
freed
wil
opin
insurance
##ume
increased
receive
blas
sharehold
purp
##irt
forced
faced
mob
##los
##ma
##iple
32
bid
farm
afford
fine
##ev
##sequ
##aves
teen
corrupt
retail
records
eye
strateg
penal
log
turkey
##egr
##asc
writing
prosp
northern
businesses
brother
text
population
##iation
god
stopped
avoid
##izz
autom
saud
claims
mir
spend
polls
immigration
jump
danc
comed
struct
qual
promin
standing
##bit
finals
doctors
kitch
none
rent
critics
tun
##uries
##aining
buildings
appears
rom
recover
parl
construction
hair
##umn
comfort
##atively
offers
apart
stars
referring
##burg
##ken
arab
##ript
##ask
ups
accomp
##encies
obv
regard
favorite
tow
spl
olympic
##uth
##ibly
cooper
basket
pieces
corporate
ton
##arian
virt
individual
36
executives
funds
thomas
vent
details
##bc
##ocks
##isted
eyes
intelligence
platform
magaz
treatment
pu
##inct
##estic
##ordin
coast
remained
reality
opposition
##works
rang
##gu
##using
heavy
conversation
##stein
cab
##amb
climate
presum
##phone
##ette
certainly
analysts
rain
outs
valley
##men
unus
twice
appoint
answer
additional
following
micro
cook
##iced
commerc
psy
##ifying
stret
conflic
korea
driving
hamilton
dropped
december
knows
gray
garden
roughly
##vent
extrem
##ika
##pro
##ancy
gets
##issions
losing
girls
##cing
##bb
stad
choo
issued
assistant
newspaper
pac
##에
##ican
marri
mont
highest
arrested
facing
fat
jon
serve
flag
budget
enforcement
ii
kids
##iated
##inger
establish
##ores
quality
showing
gallery
architect
condition
expressed
mort
integr
surf
picture
fa
jers
sitting
studio
corner
##lines
stadium
sad
prompt
various
fired
transg
occas
dinner
herself
##ero
manuf
recomm
myself
##ictions
generation
terrorist
border
manufact
##azz
jeff
##duce
shop
killing
prevent
bird
wine
##any
holding
army
screen
bat
##ios
strength
studies
designer
leadership
waiting
richard
transgender
##ota
asking
drop
##ovic
advant
quiet
couldn
commercial
55
sam
wide
stuff
##ushing
yell
##iment
frequ
dismiss
##roy
projects
nomination
frustr
proposed
jr
views
wearing
80
mention
##agen
##iful
adj
content
install
olympics
psych
spread
sav
depart
documents
ultim
lee
arts
below
bure
ther
##astic
##gypt
sleep
rub
##ashed
##ucky
argued
golden
bathroom
##do
india
emergency
innings
roo
##ram
flow
owned
delegates
aim
longtime
putting
limited
ultimately
hy
hang
##ption
injury
simple
##dden
intended
generally
radio
blasio
bench
##iles
demonstr
kitchen
contact
instr
determin
faces
entertain
odd
note
weapons
33
70
tend
##ef
testing
conditions
ol
sides
emph
smaller
september
fuel
##mad
ital
learn
display
exchange
kim
witness
##arters
##odes
saudi
parliam
##dy
##adel
cool
195
eat
scand
##ennis
football
exactly
carolina
lov
##acom
deput
seeing
seasons
##ijing
du
egypt
##hone
beijing
wouldn
##ological
citizens
date
##aud
murray
jersey
parliament
rid
##iro
##mates
##mark
##ulated
complete
75
##ems
status
consumer
ice
strike
embr
rooms
virgin
influence
rat
sudden
slight
streets
##wr
##aped
##igned
300
90
laugh
save
##atever
foundation
##don
whatever
2007
shared
creating
ticket
familiar
supposed
34
dip
##ropri
successful
meaning
lose
anal
onto
lawmakers
critical
electric
identity
kid
les
rising
##kes
seconds
greater
respect
telep
freedom
send
##ado
##essed
spain
nature
##aring
users
joe
helping
setting
illeg
representative
benefits
filled
##gun
##을
##ica
##ols
diss
impress
remind
finding
organizations
pap
##fit
creative
clients
airport
steps
software
acknowledged
nytimes
hong
##aked
complic
disease
younger
investigators
##ills
opinion
liter
resour
##anced
miller
fox
##agon
##istry
becoming
finance
trading
vehicles
prominent
purch
##te
alleg
seat
##ortion
presence
seek
walked
multiple
magazine
mate
traff
challenges
tight
##mon
score
elected
harv
researchers
telling
inspired
episode
##dr
contemporary
##ius
carried
enjoy
mike
italy
actions
positive
legislation
plant
allowing
concerned
philadel
scientists
basketball
philadelph
cry
##down
mary
caval
pair
##tr
##ya
grant
viacom
touch
exhibition
domestic
nav
ram
driver
decisions
produced
elections
murder
silver
flight
hits
##eat
##rimin
##eted
aggress
accounts
image
directly
terrorism
philadelphia
aid
tast
asse
columb
feder
disappoint
ign
kong
shr
weak
symp
watched
##lom
coff
paying
behav
immigrants
separate
widely
cu
asp
transfer
houses
beautiful
cere
register
ideas
advantage
##rick
print
plane
chef
##ipping
##rial
shift
worst
dozens
introduced
peter
altern
typically
criticism
fit
row
##mine
##itation
stood
##olic
commit
famous
planning
mac
zika
buying
winner
collabor
spokeswoman
amazon
princip
kar
##ober
##ears
##ocked
prefer
earth
environmental
martin
october
corruption
marriage
##itors
##ptive
mut
##outs
hero
shel
shown
feed
division
consumers
jackson
wonder
italian
##rid
applic
readers
changing
victor
##burgh
giant
bigger
publish
japanese
##rigue
golf
male
rene
unit
signs
missed
tens
##ector
operating
doctor
possibility
measures
##ingly
##lywood
broke
transport
meth
talks
400
##ze
neither
haven
shots
identified
hun
ok
##enty
feels
fellow
37
ariz
reading
previously
africa
ohio
oak
chem
##anda
##apt
column
levels
cavaliers
rival
##of
##edge
stone
##erto
stephen
caused
tab
##acts
brain
voted
reasons
volks
occur
cath
##wise
##wagen
disney
founded
talib
starts
nonpro
lux
proposal
bol
pin
happens
walking
ko
##nel
##icip
cho
votes
protection
approved
emphas
sust
write
##onym
fal
##dom
##ano
##aling
lew
fla
writer
volkswagen
scen
physical
core
drew
figures
tests
baby
august
##inal
##acher
##endum
publicly
promot
telephone
lands
##itals
reform
relatively
##under
fewer
pointed
spirit
bronx
##greg
##tered
charl
gender
prior
minim
deputy
cruc
reduc
continues
referendum
##board
lit
##aters
##omed
chick
spect
standards
operation
advertising
##nell
adviser
jord
chap
agent
##izes
marketing
revolution
restaurants
computer
inqu
proceed
expert
42
davis
unusual
taliban
sister
##lvan
thin
images
passeng
coverage
daniel
bernie
constitution
fish
##ola
##others
systems
traffic
gives
miam
doping
chec
deals
adop
supported
arrang
difference
colleagues
congr
##antly
upon
crack
visitors
features
rio
keeping
institutions
claimed
deeply
hurt
virginia
bod
##iate
##oned
scale
194
assemb
miami
grown
##uals
interested
remaining
ride
gov
pulled
tro
##ito
##ander
finish
##ysis
visiting
loans
moments
covered
##sylvan
discovered
pennsylvan
##zz
##ella
appl
survey
bon
fully
lic
mail
##gers
aren
everybody
hopes
closer
pennsylvania
guests
##ification
maintain
volunt
tickets
cooking
politicians
##mont
shif
type
benefit
unlik
estimated
tennis
walls
queens
jordan
800
##지
pitts
ven
##의
##idel
weight
voting
missing
rodrigue
rodriguez
luc
youth
spons
##enses
##ologist
movies
arrest
responsible
unlikely
tony
exit
courts
explos
songs
troub
resources
nice
##owed
resident
reduce
hou
##rant
perfor
##raft
linked
anth
skin
pow
##hol
##ini
##ogan
ballet
nick
haw
contest
pool
turning
denied
nonprofit
jim
##oma
worse
cloud
decide
clearly
managed
request
panel
picked
caught
##erate
##arks
##urd
easily
associated
stores
initial
necessary
muslim
##eas
##iking
##acters
obl
established
##ias
##erved
##inth
##othes
retire
characters
entered
hollywood
briefing
49
rally
transform
damage
source
behavior
##ounding
elimin
confidence
wedding
bonds
##iat
##uts
suc
worried
earned
surprise
dish
##isher
compens
agree
barb
recipe
developed
currently
institution
soldiers
scrut
trouble
australia
##yer
##oster
removed
sixth
religious
spanish
arizona
pittsburgh
arms
instance
pushed
playoffs
diplom
##ading
consequ
##ope
convicted
messages
afghanistan
bang
##apped
viet
repeatedly
##ivals
colon
confident
injuries
ordered
opponents
jul
kent
##well
##itude
worry
climb
resist
expensive
harder
complaint
38
kel
eric
##enk
##roit
##illed
conclud
chris
committed
criticized
##하
##pan
drivers
declared
ties
##ador
highly
hoped
completely
journalists
pod
##ighth
##aine
bride
##onto
delay
producer
distrib
netfl
treas
netflix
length
##mony
##xit
##arr
seats
##ardi
smo
struggling
borrow
dangerous
shareholders
roman
combined
##nam
resc
margin
internal
responded
scandal
##ᅥᆫ
##icient
appropri
underst
visited
##hammad
unlike
puerto
48
##igation
##illing
injured
toronto
lunch
mental
bright
agencies
consist
max
photos
doubt
indiana
tie
##acing
films
presumptive
inquir
hung
effects
groom
broadcast
elsewhere
egg
hired
##isf
heat
prize
sevent
guil
funding
industrial
furn
ron
wing
##onic
##ories
amid
drag
attended
detroit
##roll
pattern
equity
method
##cho
apply
symb
surg
airb
singer
analysis
native
##omo
##ockey
canada
label
penalty
ske
##icide
warm
brexit
interviews
completed
fab
unp
recru
allies
##ction
explained
coffee
grass
percentage
2004
edge
emerged
palest
prepared
gang
jer
tied
pra
placed
##athan
effective
occup
pictures
slightly
rog
##pts
compos
##anct
indeed
magn
confirmed
stretch
jun
mile
##racy
##cy
##bby
schol
belong
mission
46
dj
##eel
##uins
##acle
##acity
reporter
surve
turns
swim
achieve
auction
sant
##gl
##icts
##eman
##elling
discrimin
directors
equip
bureau
##가
abuse
feature
otherwise
greatest
performed
involving
##ycle
hu
ped
pil
##bre
forg
##roc
exerc
continuing
##place
##uits
chann
##ographer
camera
dur
mun
##은
rein
produce
accus
speaker
counsel
advocates
comedy
cents
truth
##ivity
tradition
limit
dogs
harvard
vo
##idency
fraud
talked
concert
crew
uncertain
surprising
awards
sanct
##ym
clay
bridge
twe
scul
blo
wright
warned
easier
argument
dollar
##exp
sar
##fe
##ka
##arant
##itely
##osh
crimes
ell
assum
refused
directed
advisers
conduct
hen
vul
##ounced
ministry
leads
kevin
option
##itzer
responsibility
sculpt
jail
joy
backed
photo
balance
disappear
narrow
reflect
normal
seventh
guilty
dun
rush
tiny
cold
charles
bottom
conflict
##고
##eld
uses
paint
options
jewish
ded
2000
drawn
refugees
begun
downtown
lots
direction
bringing
coalition
choose
mateen
math
##wal
##ula
2006
affect
syrian
39
cable
ire
lake
winter
advance
aware
israeli
fant
##oul
##outh
##asts
##road
seed
overall
nobody
communities
connection
illegal
lock
upper
approval
proved
scoring
centers
taxes
crucial
houston
ec
lie
rar
##hal
##wan
firms
##mann
models
contrast
stanley
##tained
franch
pregn
failure
activists
drove
initi
emotional
outl
palestin
equipment
pak
vast
##gen
interests
sites
victim
historic
delivered
##ho
warren
profile
devices
circum
initially
settlement
thunder
yourself
debut
chicken
43
bes
loved
##wich
##more
##orse
##urb
##olit
plenty
sky
baltim
apparently
##ja
##fri
agents
reput
driven
broken
object
campus
promised
1980s
urban
windows
appeals
absol
entertainment
baltimore
##ship
##ares
clothes
controlled
referred
virus
medicine
complaints
determined
pushing
sor
##ira
##aint
##actions
shortly
closing
atlanta
mand
pull
##rovers
actor
marc
blow
location
interesting
sentence
suspended
activity
memorial
ble
##iger
aside
##elled
syn
stands
opera
cuomo
anc
ending
videos
window
struggled
entirely
conducted
animals
##lor
##hab
lean
##enders
partly
active
boys
supporting
##ikes
buyers
carrying
ensure
ceremony
##uous
##sen
incor
assets
suppl
ruled
represents
learning
venture
occasion
fees
harvey
sweep
liberal
69
65
hud
zone
##cher
##ulf
decline
##roph
guarant
allows
hole
columbia
pakistan
44
anonym
##iture
rejected
##irts
ship
orch
lineup
competitive
horse
imagine
bodies
bul
gal
##ᅡᆼ
##iqu
##gar
accident
owns
suggests
substant
breat
##usted
expans
announcement
temp
madrid
rome
section
##encing
solid
innov
jam
becomes
nov
##resp
affairs
deaths
electron
misst
activities
vehicle
##chester
suddenly
gh
gain
hedge
##bon
ingr
mans
controvers
positions
fighters
1990s
christian
destroy
batter
ring
rand
sac
##wed
##ᆻ다
##ulate
aband
libr
striking
##whel
vulner
##mit
weather
resol
sweet
veterans
mobile
##inary
##abeth
##mances
advice
appearance
philipp
motiv
performances
jazz
eliz
##aza
potentially
negative
presented
academy
comfortable
eighth
uber
client
brian
drama
presc
buff
subs
talent
letters
broader
fol
pier
##ᅡᆯ
thomp
##rey
##ucks
apprec
royal
2005
handed
headqu
steve
explain
argent
represented
determine
luxury
41
cited
oce
##ᅧᆫ
adam
##ogue
##ova
basic
networks
risks
distinct
succeed
thompson
vision
##ih
##iters
##agn
plants
##aph
resort
muhammad
affected
temper
hitting
ly
tan
via
##inn
##iner
##icon
##ura
plus
outr
remarks
boat
managing
hoping
regulators
elev
surprised
ireland
##kins
##어
anton
##etts
girardi
hell
wave
upd
flood
reporting
investigations
privacy
surgery
cart
da
##ois
assess
regional
breaking
valu
protests
snow
radical
heavily
korean
structure
gained
ment
##da
##usion
imposs
euro
swing
regulations
tall
uk
##repr
doors
overwhel
handle
patient
honor
matters
migrants
faith
elizabeth
cy
anx
##iber
meetings
compete
code
rig
##zer
stake
hispan
mexican
##ription
scrutiny
hack
newly
intense
overl
acting
##ledge
renov
volunte
47
jac
sounds
wish
##uk
cham
enth
parent
associate
discussion
veteran
definitely
peng
ash
##essions
proud
offensive
##azy
helps
switch
##atured
launch
revealed
communications
bell
cate
kr
ninth
##gment
cha
amend
practices
aggressive
congressional
djok
headquarters
maker
items
interp
193
pace
session
##war
##mo
##ining
##agan
compar
dram
##soft
persu
moves
opportunities
mixed
pounds
rely
##igan
wins
##standing
combat
microsoft
djokovic
ger
jury
##로
clar
meat
thanks
classic
cameron
57
tamp
##har
##mate
highlight
supply
requires
replaced
##rom
##elson
notes
serving
steel
exclus
atlantic
complicated
accusations
rous
##ati
unable
confront
organized
massach
element
experienced
rico
yield
##usetts
adults
brands
branch
##ached
##iano
flav
providing
popul
closely
welc
massachusetts
euros
##ussels
modest
earnings
kir
pound
##ta
##ek
##wart
##emp
canad
testim
factory
violent
allegations
dar
gap
##ien
sher
web
cancel
2001
realized
harm
happening
returns
gathered
papers
##ties
##equ
##lah
##icated
##igar
drink
captain
extended
##ography
##도
##ece
proced
synd
essentially
##friend
threw
stick
##enda
transl
democracy
shad
asia
crash
192
actress
capacity
treated
jewel
landsc
skept
ocean
bound
map
tap
##east
##rative
##iences
shape
teacher
emissions
##attle
heads
employee
welcome
roof
races
wer
##aid
##iders
##ads
shirt
chose
enorm
joint
actors
homeless
urged
joseph
oklah
reputation
echo
las
tol
##amples
remove
150
representatives
independence
obviously
occurred
52
revers
suicide
##istics
recon
prep
knowledge
statements
loan
argue
regularly
silicon
commissioner
negotiations
rapid
rarely
oklahoma
kick
ted
##icked
bear
##agram
elite
desire
producers
opposed
gotten
viewed
struggle
impossible
cards
##aire
##리
wheel
roots
donors
governments
species
##echan
settled
individuals
photographs
fel
##long
##itory
brussels
remov
assert
discl
hospitals
distance
teachers
tower
cock
jane
rabb
task
wore
##rison
asian
usual
writes
actual
furniture
orchest
enthus
categ
bail
kurd
##iary
alive
prove
##ube
featured
cream
prosecutor
scenes
vietnam
kentucky
kelly
franchise
nad
proper
armed
passion
bankrupt
1970s
commitment
63
ce
##maker
storm
tru
pled
2017
returning
begins
turk
threatened
losses
compensation
sets
##들
stocks
##ubb
motor
beauty
##eries
##inals
##ani
##otic
##illa
monitor
flat
relief
background
developing
unclear
leaves
honest
hip
##inson
##rog
worker
guide
values
bills
alongside
traveling
graduate
replace
dispute
restrictions
tact
##isters
wrest
termin
mcdon
customer
variety
cells
penguins
rol
whit
##utely
plate
sharks
understanding
recommend
bloom
##ration
##che
##uster
warning
matches
fears
suffered
mortg
prompted
passengers
hate
##za
##elle
##ocking
unexp
carp
invited
involve
racial
immediate
prospect
consequences
pages
##craft
##bl
fred
notice
somewh
desper
bob
memo
memory
barely
province
effectively
purpose
split
troops
somewhat
cbs
unless
##ections
overtime
blog
##acted
greece
promise
sharing
solo
limits
dining
historical
unexpected
mechan
rice
tone
##front
consp
entering
partnership
extremely
##해
##iable
chain
chances
offense
remark
provides
cabin
53
##mond
##era
alt
##allas
##licit
stress
presidency
colleges
encoun
properties
animal
yellow
transportation
concluded
testimony
54
eager
rail
wolf
##eal
##eness
forest
##ipe
trees
surviv
australian
##draw
kas
##ded
parks
swed
friendly
considering
guns
##vis
##bors
##ita
chore
trend
##oses
adult
outdo
intention
reserve
scar
instagram
advanced
anger
possibly
falling
stayed
emails
kerr
aimed
library
gaw
hockey
##ils
##eline
noting
sequ
belg
banking
legacy
diverse
citing
gross
mood
rug
##oen
##ses
withdraw
##season
allen
coordin
hotels
connected
clubs
berlin
lem
##vy
##onom
goods
profession
swift
civilians
tracks
accepted
machine
assembly
mas
ray
weigh
outp
listen
islanders
rounds
ranked
principal
cigar
sending
##tail
##bel
fried
truck
prohib
abortion
plot
consc
circuit
reduced
bom
cos
##nic
##ca
##aro
##real
perman
campaigns
passing
increases
cuts
suspension
discussed
rebu
racing
dismissed
valuable
51
gent
lau
##erous
##amin
concept
##ighter
##astr
secure
index
fields
error
establishment
alternative
chemical
treasury
ukr
soph
##uana
##him
forec
forget
intens
relatives
governing
endorse
headed
payments
classes
fallen
arabia
circumst
rousse
enormous
##roid
agenda
crazy
defeat
holds
reaching
device
diversity
gor
neck
rot
beer
##unk
brothers
greg
handful
neighbors
cutting
challenging
semif
turkish
aides
gains
pig
punch
ty
##zy
##atically
empty
delic
calc
recorded
coaches
divor
combination
wilson
nbc
##서
##vant
##chi
##eme
universal
territory
kinds
##ijuana
neighborhoods
mountain
derby
expanded
odds
discrimination
rural
vig
##lem
beating
tested
healthy
cul
dallas
mol
os
##iwan
##를
##oms
##olis
reaction
optim
expectations
##heim
existing
muslims
apartments
inquiry
##gas
##acks
incred
somebody
slam
##rete
angry
islands
painting
georg
opponent
pent
아
shakes
orange
grace
sugar
journey
drawing
verd
acquired
dressed
estimates
##gaard
frequently
misstated
canadian
600
76
kat
##ᅮᆫ
##once
tools
alliance
eval
scot
streaming
realize
##ullah
latin
acquis
exercise
gian
##fast
abd
disab
interior
seriously
harris
listed
affordable
catholic
anthony
retirement
rousseff
horn
rivals
offices
insisted
homer
elector
virtual
dyn
##how
##urt
pray
ads
fled
##ancing
##ecutive
discip
developers
failing
kenned
obvious
mouth
##pective
##gent
##alf
conce
##phones
formal
foods
slowly
proposals
accompan
absolutely
gawker
diam
tree
units
barr
loyal
portra
necessarily
birthday
##employ
ah
##pread
theory
liked
brut
investments
satisf
escape
truly
kennedy
fought
lady
tay
voc
##ole
##othing
chees
hasn
unif
unemploy
knowing
taiwan
##iveness
likes
conversations
queen
62
wides
##eland
##keep
arena
brad
overt
##reek
killings
anticip
michigan
suspect
admitted
documentary
channel
##reprene
pock
##aver
##ables
20th
guards
investor
defic
entreprene
threats
widespread
dim
pad
wounded
marijuana
steven
stepped
funny
activist
predict
cuba
extraordin
experiences
departure
gon
roles
wake
ye
##erts
frag
chos
opens
consecutive
postseason
humans
currency
recognize
84
bou
lind
tar
##rees
surge
2003
soul
membership
titles
pleas
shoes
tribune
protesters
symbol
chosen
jur
kos
##itarian
concrete
corporation
minority
argentina
72
##pear
##west
brings
depend
belief
hardly
securities
solution
employment
hudson
due
##isan
spaces
upst
cru
scor
phill
minnes
requests
lobby
viewers
mosqu
mistake
weren
uniform
##night
##구
##erce
##enberg
##orous
##opher
highway
guess
entr
suggesting
motion
illustr
episodes
expansion
##icut
##ials
entry
sentenced
lightning
schedule
flying
##auman
shakespear
sick
manage
##ansas
##phy
metal
pitcher
vital
butter
##iev
disag
blast
commerce
basis
transition
collective
questioned
primaries
originally
connecticut
pacific
minnesota
shakespeare
66
gro
##life
featuring
powers
hispanic
baker
cum
nas
nurs
##ae
##yard
##ci
chase
##berry
string
pharm
boom
##ettes
250
types
route
matth
85
tum
notion
severe
walker
patrick
performing
equal
stronger
erd
legislature
colorado
kerry
appointed
surface
electronic
jewelry
lyn
##eda
writers
behalf
skills
apolog
portray
ranking
identify
settle
99
crown
faster
rum
wire
##lers
##esth
##ala
stro
isol
unique
##apse
evol
theme
musc
subsc
dealing
financing
believes
##ivalent
shootings
suspic
goldman
jean
59
64
fo
fasc
loud
tail
##imp
##sea
##agers
spin
##iana
19th
judges
technical
blocks
punish
bankruptcy
56
dil
dauman
osc
sir
##itable
grade
somehow
salt
##while
laid
espn
improved
##iffs
##club
opposite
premium
diego
58
ts
##ergaard
##icing
whis
alco
exposed
blues
##lands
ends
traveled
snap
registered
##idelines
syndergaard
##oning
##etime
enem
worldwide
conclus
receiving
cafe
solar
shopping
rangers
manufactur
taste
publishing
cow
##bro
andre
traum
scores
decor
disclos
engaged
divided
beyonce
materials
surrounding
teenager
scholars
##olitan
tampa
fame
hat
##eing
sued
abroad
artistic
guit
wars
affil
typical
tourists
ronald
ru
aircraft
contracts
borders
premier
understood
amendment
95
ox
rif
trick
depress
basically
##ommod
oakland
initiative
diamond
bart
cro
makers
om
height
outcome
drinking
accommod
edward
experiment
factors
totally
essential
captured
amazing
jonathan
91
mour
pere
rape
##antic
roy
defending
profits
nightclub
calm
designers
mainst
pitched
function
dominated
pursue
sharply
uncertainty
chamber
circumstances
##rors
##inem
##ario
##itious
chel
anywhere
2002
legs
shoulder
charter
fundament
devast
##backs
duty
adjust
##arrass
lights
##tion
stun
forms
formed
##apolis
blaz
carr
advent
attacked
philos
delivery
bags
cert
taught
##de
##met
revel
trained
pride
##ucture
posts
keeps
##otte
suspected
murphy
breakfast
embarrass
vulnerable
matthew
jenn
##iere
thor
##usal
please
ancient
hid
josh
##ashing
acts
arbit
deport
communist
arguing
ambass
catal
ratings
appropriate
ingred
dating
lad
rick
tang
##한
##asy
##stage
frame
##aks
fee
reluct
metrop
extreme
misc
significantly
cuban
kasich
dad
dub
sty
##ocol
sox
intent
##ensus
collected
briefly
1960s
selection
weapon
upset
praised
outdoor
gift
hi
hors
ib
##시
##ko
##itage
anderson
##verty
concent
leices
carter
elig
lawsuits
merger
bowl
architecture
mentioned
sanctions
landscape
pledged
leicester
raw
##라
##저
##ora
forth
reward
wash
##illance
seattle
conte
flu
ourselves
defensive
brew
promote
numerous
controls
districts
iron
pitching
dutch
chelsea
tack
va
##bury
##ᅮᆯ
##erves
##iration
##ivan
##awn
smoke
transpar
militants
correction
wealthy
strategic
sons
##rated
shell
leon
clothing
heritage
disrupt
thank
strip
bars
detect
findings
elements
sources
surveillance
henry
toll
fro
iphone
kl
lending
sight
sne
##father
heights
payment
traded
massac
mosc
bedrooms
embrace
minimum
adopted
palestinian
mitch
pav
tu
##nie
##hr
unw
liby
poverty
politically
switzer
moore
equivalent
representing
celebrated
false
antonio
dial
lam
##here
shirts
sees
##away
attrib
impe
authors
describe
blocked
recipes
navy
71
eating
##fol
##anes
##ari
##sey
comprom
everywhere
teammates
seemingly
putin
swiss
##phere
managers
judic
importance
devoted
selected
lesb
extraordinary
switzerland
hamp
tak
troph
zero
##tt
##point
##child
202
myst
relie
anymore
obtain
demands
household
travelers
emerging
dedicated
overwhelming
erdogan
73
nic
pill
##anos
tob
dry
##berts
strange
knee
desk
runner
heading
childhood
menu
morgan
magic
reviews
relationships
consultant
birds
coc
file
##tube
##va
##inter
##ching
dean
youtube
poet
filing
circle
complained
fairly
preparing
ethnic
therap
hyp
##ulous
adapt
collapse
regulatory
staying
christopher
212
answers
absence
alcohol
##bow
anch
##illy
stuck
##apes
christie
##owski
journalist
orders
gathering
destroyed
sacr
700
dust
ga
hug
jay
tort
##icking
##izer
parking
officially
vegas
corresp
gunman
approached
ult
commander
alexander
choices
correspond
67
eld
lined
nash
nato
pour
sector
shout
dod
medal
signature
##enez
visual
musicians
photographer
landed
celebrity
contributed
encouraged
grounds
recession
disaster
opio
estimate
developer
laur
painted
throwing
hiring
##ᅧᆼ
##anth
afterward
contain
191
terry
harry
moral
ballot
tells
cheap
##iece
advocacy
mosquito
ale
boss
luck
por
vib
wage
##ped
##bed
alle
##ags
brick
incident
simon
##ucted
select
recognized
jumped
manufacturing
electricity
shelter
rescue
bloomberg
gate
gym
ri
rook
##ht
##vention
##sters
sab
albert
##agger
carbon
accur
transaction
infr
facilities
##uzz
copa
physic
scientific
confirm
substantial
subsid
cycle
rud
atm
##uls
exceed
##aka
apps
carlos
roberts
serves
factor
competing
##attered
##apping
pitches
pleaded
degrees
narrative
attempts
bombing
residential
shadow
pentagon
giants
linc
tear
가
ford
##acious
##aware
strikes
endors
empire
lobb
excited
demanding
delegate
joining
federation
pregnant
dynam
61
bitter
dna
ross
vel
##iser
shops
resolution
studied
subur
annivers
experim
singing
reference
floors
expression
cubs
exception
integrity
constitutional
paintings
overloo
permanent
hay
pump
하
##uations
##hand
##inks
##atures
shock
blank
phr
billions
ideal
excell
femin
package
scotland
mainstream
et
lon
na
zh
##ua
##me
##ardo
clock
streak
harlem
differences
moon
audiences
tourism
focusing
trials
mutual
sustain
ambassador
metropolitan
jet
wada
##lu
##had
##water
stakes
uncon
plastic
##pton
##ords
promising
finds
prosecution
discussions
trips
celebrate
legislative
detailed
recovery
granted
lemon
unemployment
fier
lap
qa
sed
thus
chile
aging
anyway
assists
articles
barcel
operate
terrible
horr
intellect
defendants
##omfort
pron
abc
resem
blame
deploy
veget
handling
economics
array
arrive
packed
participate
casual
specifically
sympath
thinks
occasionally
survivors
guitar
fisher
gil
jason
khan
trem
##set
##can
stem
spurs
liqu
strict
flash
unders
donations
assad
guest
ambitious
abandoned
cheese
philosoph
anniversary
ward
##com
toler
##stit
##umin
##ifer
relative
transc
billionaire
enterpr
towns
unfair
championships
engineering
impeach
infrastr
hart
kal
##hi
thick
inev
##oln
grav
explo
justin
colomb
elabor
mini
broker
##raid
camps
turner
personally
reflected
tonight
ease
hire
##nb
neu
##emen
##agement
##aba
curator
interviewed
illness
prospects
purchase
infrastructure
naz
nights
pizz
yale
##alo
##ione
reed
comic
manchester
preced
smile
warn
capable
legit
visits
1996
triple
##인
survive
anonymity
conspir
georgia
lincoln
barcelona
ay
niger
pist
그
##스
##rence
##zan
cher
##agu
##aki
monthly
bases
subm
parker
##box
celebration
fifa
medicare
brazilian
refugee
stanford
shareholder
moscow
77
buck
cros
rall
vint
##reh
stall
forb
insist
puts
awa
##going
apparent
qaeda
hub
lucky
mine
sull
##ria
##mes
enh
indones
stream
barcl
transm
hitter
unfortun
clinic
cocktail
mortgage
dies
fu
fisc
gear
hind
kiss
##yth
saved
conven
##unes
spots
insider
##aham
starter
disabled
perez
context
92
lop
tip
##기
somewhere
carefully
appearances
summ
##anna
spoken
awarded
cameras
kingdom
bernard
religion
academic
kh
lift
##die
##sing
##win
neut
##ulating
noticed
##abil
peak
defeated
busy
facility
regulation
hosted
jews
iraqi
tunnel
frustration
canceled
prepare
horses
greek
nich
ric
##een
##rich
stol
stamp
expos
buzz
##othe
guidelines
banned
signal
airlines
arguments
temporary
survived
outrage
pink
roster
waters
rey
conver
expenses
runners
subway
investigating
caution
1999
mcm
immigrant
egyptian
disappointed
resistance
68
ast
aesth
ba
##ders
##isa
afraid
engage
##known
suffering
routine
mistakes
dancing
podcast
forgot
mcdonald
ukraine
wimb
사
##lades
andy
adams
reson
##ledon
statistics
explan
condem
farmers
hanging
witnesses
banglades
wimbledon
kansas
mall
sin
wang
##oked
##ports
manip
sov
implic
warrant
##bridge
facts
hills
inflation
madison
##aughters
premiere
savings
sustained
santa
riding
wages
##zen
forever
lev
orient
relax
anybody
perspective
covering
storage
targets
conventional
recommended
##gregation
maxim
gonz
oscar
massacre
74
88
fate
iv
##uated
##case
imper
universities
extr
causes
informed
fastball
participants
advertis
indicated
rolling
lewis
litigation
applied
fabric
taylor
deficit
vintage
sullivan
lane
##itol
hey
alter
agric
maria
accel
voter
corps
subsequ
nationals
##ushed
conservatives
bottles
encourage
cryst
application
entrance
fiscal
어
##mans
##ingu
##acco
##iller
excess
generations
candidacy
strongly
deeper
vacation
frequent
victories
neutral
barg
cinem
주
##ni
stal
shan
shaped
alert
chanc
##agg
hadn
arc
ages
grim
overha
knock
harsh
thirds
performers
meanwhile
petition
challenged
liberty
escal
attendance
consulting
tensions
anxiety
##lad
##fire
##게
##arch
habit
##asted
##eller
resign
user
scheme
oldest
steady
patri
organic
judgment
missile
suggestions
1992
iranian
priority
airbnb
bout
hide
##ji
##mel
##bul
reagan
chan
unions
##uded
##aping
amy
carl
explore
conviction
##ographic
discovery
teaching
surrounded
swimming
orchestra
kurdish
belgium
tobacco
rookie
bos
bach
flex
finger
pip
inher
stir
##uting
##emed
##istent
intim
##quist
publication
charity
##uctions
metro
edition
##ucker
locations
pressed
galleries
copies
##tran
bust
gut
gord
pure
venez
wis
##etr
reass
isis
unknown
acres
##onduct
dece
announce
labour
generated
ordinary
assistance
thorough
gif
zoo
##rian
##inations
##itated
android
reh
##osis
repair
2018
howard
objects
studying
defended
10th
collaps
competitors
##lessly
agreements
##anny
merely
##uela
austin
requirements
dancers
virtually
##walk
locker
sophistic
agricult
dak
##rical
todd
nev
traged
suits
org
manner
resigned
##izon
cohen
flour
steep
feelings
technolog
primarily
silence
flowers
tables
cord
daughters
fault
lav
tent
tub
##tle
##pe
thrown
##isive
##acement
##owing
##osphere
plaint
imposed
phones
depos
winners
extensive
promises
irish
antid
holes
rebounds
copy
oversee
overseas
expanding
romney
collaboration
incorrect
dimin
fi
lion
##ao
##uja
##fall
##stri
##thy
chat
tri
unn
##aved
joke
##anged
##oko
barn
counts
1994
lowest
ranks
describing
landl
eleg
constant
preferred
wonderful
checks
fantasy
nadal
dear
foster
##po
##jo
shed
##vere
perp
howe
backing
##athon
depending
weekly
barrel
economists
1989
burden
nationwide
laboratory
targeted
municip
philippines
remarkable
takata
gig
hook
pir
yard
yog
##rill
##like
##wear
##ester
chocol
##usive
leagues
craft
mug
obst
studios
##linois
russell
violations
susan
illinois
portland
buried
vermont
replied
predicted
unfold
girlfriend
reveal
regardless
embraced
literally
license
sweeping
crop
han
nerv
slic
고
##ᅢᆨ
##uate
##laim
##omen
phen
invested
advised
personnel
arrival
extend
lessons
irving
disturb
troubled
cass
dict
gest
pear
##jection
##ali
proof
exagger
clash
marked
flaw
senators
wells
beltran
requiring
palace
resulted
crowds
damaged
destr
nominated
tenants
obser
emotion
iii
batting
bathrooms
junior
encounter
conscious
trophy
fet
hbo
nest
som
vet
##icism
##umes
##apers
recording
meal
##ibilities
marsh
desert
continent
topic
wales
facult
##rett
employers
coaching
portfol
fixed
purple
lists
tank
wings
##lights
inmates
waste
##chat
##emic
auto
haram
editors
dealers
singles
balls
falls
1998
##ervation
involves
millenn
grandfather
innoc
wildlife
cellphone
contributions
recognition
raptors
citizen
eggs
sculpture
temple
controversy
ceiling
barclays
bangladesh
soviet
78
bump
dol
posed
##dam
##kel
##xim
reven
fruit
unity
brill
legend
loose
protected
formula
reasonable
buyer
##umbled
frustrated
hiros
bold
gle
honey
hicks
sach
vine
wat
##pin
##drop
##aron
##ales
toy
gras
depth
mah
shouldn
extent
sentencing
larry
trainer
custody
similarly
cooperation
maryland
federer
charlotte
pilot
divorce
yeah
impeachment
gi
kle
oreg
##gie
react
grill
##awa
##umph
delight
majors
pointing
investigate
affir
wooden
normally
attracted
innovation
ingredients
elaborate
lopez
oregon
dw
jes
ramp
samples
##lings
##irty
##ellor
marine
quot
param
creation
passage
violated
18th
educational
chairwoman
crowded
capture
##rell
ownership
enjo
spraw
roger
supplies
chaos
dramatic
atmosphere
faculty
bone
patch
##rum
##uy
##아
ank
weird
lever
orle
cler
amuse
##ouses
##aux
invent
officiated
##neys
provision
sandwich
revival
threatening
thousand
lifted
memories
proceedings
misconduct
eligible
aqu
cun
diet
kenn
rend
rib
yards
tool
##asse
##icop
alan
seized
##asters
acre
perc
##angel
obtained
##weight
planet
##etti
waited
beneath
civilian
##shire
defenseman
boxing
gardens
impressive
ces
nut
rust
rack
tired
vale
##eira
##ington
##ouch
abb
plum
graham
quit
subjects
producing
harass
harbor
dealer
boards
insurers
absor
dominant
diagn
utility
toni
durant
rebuild
dy
link
tig
ware
지
##eca
##roduce
##owa
##chenk
bry
crude
consol
broo
supports
bread
##rolled
salary
##rooms
1997
##rupted
educated
burst
castro
doubled
sensitive
teenage
smooth
voices
tremend
orleans
fold
gulf
tale
xi
inequ
##oli
degr
monet
coinc
obsc
guid
businessman
mainly
organizers
quarterf
lighting
stops
recalls
versions
prisoners
franklin
climbed
patterns
rapidly
vocal
snapchat
manufacturers
chancellor
fiction
hint
hunt
lor
##kele
##inely
##eded
priced
orth
clark
drone
explicit
parade
##issa
obit
investing
baseman
corn
capitol
profound
useful
mainland
industries
connections
achieved
obligation
consistent
disappeared
interpret
sheriff
cigarettes
portrait
municipal
bog
gates
homet
iowa
lies
pione
tox
##olas
trucks
suite
drum
marathon
knicks
defined
registr
##ologists
listening
terrorists
athlete
##abbed
enjoyed
##iques
category
libya
nu
zeal
시
##oration
whites
ally
phoen
transactions
detained
valid
messi
pitchers
closest
improving
conservation
nyquist
advocate
kenya
lifetime
teenagers
incorpor
breath
tigers
cinc
dor
gamb
omar
vin
yen
##itr
##lev
worn
reck
##angers
discour
careful
breach
creates
walks
maintained
badly
temer
epid
popularity
luis
remembered
accomplish
installed
chapman
leaning
resolve
##innati
enthusias
desperate
stolen
cincinnati
dick
foul
pending
vary
##eding
toky
##otyp
stations
##acon
shi
priest
leather
libert
cox
yorkers
airstri
speculation
operates
falluja
landing
influential
acknowledge
strategist
loves
battery
cabinet
sweden
endorsed
hometown
tokyo
cn
dent
nate
##rd
##hd
unr
tea
##itters
##aze
raises
programming
##etta
1995
constantly
photography
speaks
rhyth
migration
progressive
dreams
burned
perfectly
permission
linkedin
barbara
rugby
bombs
sophisticated
tragedy
technologies
jere
mits
tes
wisc
##ss
##stop
##aments
alar
notably
##ello
recre
drinks
##odox
##aving
poland
teix
covers
serge
bund
##onsin
headline
stein
testified
equally
dougl
describes
chairs
bias
crossed
bottle
flew
ghost
wisconsin
teixeira
cake
lod
rental
##western
##abul
upgr
overd
marks
##ishi
quant
asset
thoughts
efficient
detention
harper
economist
visible
stark
##ikers
skill
prevention
causing
portion
favored
feared
journalism
addressed
editorial
computers
rhodes
assumed
involvement
brutal
nursing
lynch
phrase
conspiracy
valeant
phoenix
96
fare
gary
hul
##pal
sail
##tert
quarters
helicop
gene
extension
designs
solve
suspects
hosts
palm
encouraging
procedures
acquisition
disagre
hidden
ultimate
83
bike
cad
fake
nod
sits
vlad
forcing
##lying
shuff
##eston
##anted
timing
acted
assign
arriving
refere
possession
privately
globe
exciting
uncle
ethics
engineers
smartphone
quietly
impression
sorry
accompanied
##국
79
87
dates
ow
puck
sang
vowed
##ᅢᆼ
##rie
##iors
##ws
anne
##isse
##isons
##eting
##star
hav
exem
hastert
##ooks
underc
remote
##riers
universe
##ception
mccon
questioning
firef
funeral
admission
protecting
appealing
engineer
applications
methods
professionals
##hima
verdict
fundamental
elder
bass
gam
hann
icon
pits
##ila
##aya
##imir
tries
leaf
compon
noise
##lining
morris
negl
presentation
boxes
oversight
benj
dissent
diplomatic
smoking
disclosed
excellent
##stitution
nevada
bour
sque
sothe
tam
yemen
수
stance
stable
sovere
residence
incent
##inder
usa
attached
stead
salv
operated
patrol
sells
urging
luke
answered
beaten
rubio
ridic
cruise
reluctant
shangh
chocolate
sovereign
aaron
cous
dying
gab
lenders
sid
tag
##cia
##과
##inity
##inced
##ayed
shake
##thur
##estig
##estyle
graph
resur
craw
blamed
justices
colored
reloc
genre
founding
barred
lesson
attacking
relevant
approve
120
latino
panama
struggles
versus
inspector
destination
picking
matz
emphasized
motivated
rolled
hampshire
hiroshima
hes
nelson
piano
##eu
##coming
##fa
##zing
##kers
atlet
abstr
##abet
inclus
##ensed
nowhere
##identified
attitude
courtroom
moderate
solutions
situations
humanitarian
trains
deadline
inspiration
historian
mountains
romantic
skeptical
monitoring
arbitration
dialogue
lesbian
undersc
reyes
atletico
82
fou
fid
jar
ku
porter
roth
##ping
##wall
##kward
##isely
fract
##estone
chest
leban
spur
##elli
bruce
amounts
intrig
overcome
contained
blunt
flint
impose
smugg
promoted
locked
infant
discussing
awkward
roads
scientist
utah
renewed
arrangement
troubles
punishment
disclosure
aesthetic
venezuela
sotheby
shanghai
az
bunch
cyc
mild
oun
pension
##lie
##feld
##xual
##erie
##see
button
##iley
slide
campaigning
##ratic
delaware
arrests
differently
violation
noneth
petro
woods
avoided
tomor
examined
appreciate
removal
gentle
mystery
pizza
crystal
guidance
nonetheless
fing
kings
ug
wy
wound
waves
거
##pass
##만
##alia
##rets
##ilad
whist
rehab
bra
##atched
personality
editing
convinced
1993
chronic
publ
benefic
momentum
tourist
eleph
reviewed
rebel
horror
screening
reflects
rosen
vacc
politician
miranda
burea
reminder
delayed
janeiro
##keeper
overhaul
phenomen
mothers
nap
vit
##gence
##러
##bar
##ete
##acc
alab
##udes
braves
artific
everyday
follows
associates
merch
juan
volume
speeches
links
searching
platforms
ranging
navig
dishes
outlets
besides
colombia
mitsub
bbc
kam
lyr
tatt
##dan
##stan
plain
outc
190
impl
defl
milk
headlines
ambul
mosque
spotlight
newspapers
wrestling
rifle
douglas
mcconnell
benjamin
tomorrow
mitsubishi
81
aide
gaza
ky
puzz
tib
torn
vess
##mother
rever
reop
sauce
shore
cra
scream
blind
thrones
##erte
defender
valued
sket
announcing
errors
responding
martine
borough
regarding
fueled
hunting
passenger
rogers
volunteers
lobbying
explanation
portfolio
publisher
bare
cot
gib
kund
loun
wol
##pay
inches
##erse
exha
abu
introduce
dispar
quoted
colors
##arez
##ixon
signing
prevail
##ominium
pressing
##beat
generate
condominium
##ippi
pulling
tournaments
existence
wondered
definition
reminded
promoting
random
gordon
hitch
lag
mullah
##rane
##iy
##bour
##idal
##eton
reject
tra
perce
marvel
lawn
backl
adds
discount
barry
designated
requested
explaining
researcher
landmark
turmo
##umbling
celebrities
peters
demanded
websites
fatal
installation
priorities
minimal
reducing
sponsors
seeded
laund
philosophy
sachs
vladimir
alabama
turmoil
86
ka
lect
nether
rav
sample
저
##ture
##gor
stability
##ifies
spar
##ortions
replic
##izable
lasted
##athers
centuries
warner
editions
funded
michel
portug
deadly
minds
있
penalties
recovered
conflicts
riders
mailed
oblig
phillips
devastating
antidoping
incorrectly
registration
ak
rivers
wider
##mons
##mble
##나
##으
##organ
##anim
stack
shame
neil
##andez
expense
indo
courses
regret
founders
handled
salad
##enna
sentiment
caut
communication
qualified
integration
hugh
recommendations
semifinals
subscrib
fierce
subsequent
martinez
cout
tears
##rent
##ski
##lan
##list
##vised
##zo
##zed
##orius
##ili
stages
##adi
##unct
grapp
evac
polling
lawrence
medium
##print
airline
starring
seller
soldier
austria
swept
regarded
surprisingly
terminal
nashville
diesel
forgotten
triumph
tremendous
cnn
94
boko
fence
fern
nur
##요
onstage
shy
abr
worries
offsh
compound
cole
letting
topics
mississ
southeast
privile
formally
claiming
dropping
filling
tomato
disappointing
sponsored
composer
buffalo
dakota
cats
mud
pays
ratt
##pen
##cop
##isms
shield
asyl
chor
plun
mining
slump
openly
beloved
edited
##igroup
specialist
surely
citigroup
corporations
baghd
negotiate
mobil
arranged
lengthy
folk
forecast
nervous
craig
asylum
bent
ling
nik
tension
##uch
##held
##bi
##orious
##iti
##itate
haz
gran
therefore
indict
longest
longstanding
belt
legally
##bron
confusion
deliber
investigated
humor
holdings
##boy
script
athletic
attempted
demonstrated
weakness
sympt
renew
traditionally
sarah
flavor
welcomed
enthusi
tactics
entrepreneurs
depression
anchor
exposure
tesla
89
bother
dart
foss
fighter
hut
sessions
sisters
yah
##ba
inch
notable
unh
##anton
##ucked
grave
evolution
##rys
firing
interact
invas
wrist
assume
genetic
teammate
seeks
##erald
emily
##ifications
authent
blacks
sentences
followers
supervis
squad
140
hopeful
minded
villa
pulse
sufficient
bullet
1950s
koch
confidential
assessment
endorsement
transparency
brilliant
tibet
netherlands
dud
mam
sib
##dale
thiel
defer
##ounce
deciding
myth
elbow
underground
greens
earning
provoc
musician
1990
mills
130
deny
uncomfort
casting
graduates
resulting
briefed
350
defendant
indication
checked
jerry
exclusive
dodgers
perpet
mississippi
rou
##oe
##mart
prol
##abilities
##ache
root
attending
guer
broadly
militant
1980
accounting
colorful
burns
permits
retailers
mirror
distribution
##anthrop
intellectual
indonesia
sprawling
dug
dirt
eag
tas
tips
##mat
##foot
staged
##opard
##artisan
lease
brib
disord
preserve
assigned
highlights
makeup
slipped
loaded
summit
northeast
couples
tempor
pleased
addressing
crossing
protections
tenure
restrict
improvement
burning
##에서
laughing
nickn
consistently
ecu
698
comparison
populist
rabbi
conclusion
##brook
mitchell
enterprise
acceler
collapsed
bureauc
eman
od
oc
pose
rational
sect
##gel
##itled
saint
chen
##ulations
examples
##osing
##orted
carn
decre
presents
##enson
define
##azier
reds
##ahu
irre
michelle
risen
greenwich
exclud
titled
periods
alien
garb
1964
oversees
earnest
collections
catcher
contentious
principles
surveys
guarantee
highlighted
memoir
pocket
rehears
orthodox
artificial
##ranean
98
dot
jess
jays
zucker
##tz
##rera
##fers
##gart
##eli
##acles
chrys
grab
margar
##ensions
myster
schne
reliable
consensus
phel
keith
##tenance
engaging
passes
maintenance
reader
painful
productions
appointment
charlie
controversial
renovation
disclose
fascin
crosby
mcmur
amusements
tattoo
eb
lord
##gs
##니
##bing
##tery
##andowski
deemed
compelling
twist
carries
presidents
##ollah
##hips
transit
takeover
sandy
revol
practical
cambridge
garcia
responses
acceptance
contrad
rodchenk
precisely
clinical
dancer
psychiat
benchmark
spiritual
shifting
shifted
explosives
palestinians
persuade
vigil
incredible
electoral
catalog
jeremy
baghdad
mcmurray
rodchenkov
bald
dump
icel
rut
##aa
##vas
##fish
inner
##isi
##utical
trends
unve
##unting
twins
noah
flights
finishing
phase
wrapped
boats
minne
caps
turnout
raj
propag
##ieth
cheer
cheating
holland
holiday
difficulty
boyfriend
bullpen
willingness
556
guaranteed
semifinal
inequality
toxic
minneapolis
bic
tape
##haw
lebron
plaza
meals
whenever
##auer
wines
milan
1984
##shot
offerings
budd
fortune
machines
choosing
aspects
shifts
hawai
interpre
compromise
pronounced
rhythm
iceland
97
93
astr
duck
kate
pond
rating
rah
부
##gal
##자
##ᅩᆫ
##uten
##usc
##oped
deuts
arthur
manuel
incomp
##aceutical
contests
poison
addiction
betting
postp
##ieties
secured
tradem
footage
philanthrop
1986
denver
panic
satell
albany
contacted
##writer
elevator
delicate
unfortunately
monetary
cem
welf
##piece
##dled
##li
##aman
bears
alph
prestig
outfield
canc
appet
deck
capitals
skel
broadc
argues
superd
1988
museums
digit
racism
robust
participation
duterte
purchased
chefs
electorate
attributed
dat
dian
fishing
gol
hood
kicked
kabul
moss
pas
pants
tends
von
##inge
tours
##ppy
brid
intimate
##aug
flower
wanting
supporter
1991
successor
silent
approaches
jacket
admit
advisory
acquire
doubts
telec
contribute
casino
sleeping
jimmy
volunteer
reverse
overturn
stroke
enemy
klein
phenomenon
couture
welfare
nat
sorts
##wick
##ede
##areness
##roe
frazier
prote
enroll
##oded
scout
intervention
accord
helm
detective
careers
airports
engagement
southwest
administrative
graduation
garage
awareness
essay
keny
collectors
pollution
##riptions
theranos
meaningful
ignored
lewandowski
carpet
frozen
liquid
consolid
epidemic
airstrikes
80s
900
ax
dell
gann
ott
patt
rit
sands
##math
theaters
reign
##owitz
shocked
strain
parall
default
##alez
delays
stewart
youngest
massive
merkel
worksh
literary
aggressively
climbing
flavors
chemicals
optimistic
pharmaceutical
dynamic
gonzalez
yahoo
uncomfortable
temporarily
fights
till
##eating
##iem
##iop
##ᅳᆼ
##atisf
##inging
wholes
##uters
asks
unpr
spieth
polar
##ishop
feb
jokes
finale
donated
mediter
suppress
##atta
basement
europeans
talented
restore
visa
midtown
listing
urgency
breaks
admissions
historically
tennes
requirement
escaped
drafted
substance
literature
chapter
eliminate
institutional
elementary
fulf
lying
sie
inaug
forum
beir
sherman
##ules
unch
unrel
donor
assail
genu
raf
exploring
committees
cheaper
neighboring
distingu
rebels
21st
yankee
holy
accessible
accepting
spotted
rivera
imagined
melissa
commanders
emotions
jeffrey
displayed
removing
judicial
opioid
submitted
elegant
lyrics
mediterranean
aids
bip
hend
istan
ov
##itement
oracle
outstanding
##uccess
soil
imprison
regions
keys
transpl
breast
glad
messaging
successfully
philip
racist
williamsburg
embass
qualifying
demonstrate
transferred
clouds
##break
reinfor
rushed
##pedes
cespedes
ounce
authentic
zuckerberg
chrysler
istanbul
hod
jung
kay
piv
rach
wet
##ux
##mal
atop
trig
unanim
ark
compreh
lip
##ogy
##oven
underway
beth
downs
curious
anna
classical
costly
cleared
emerge
focuses
winds
##holders
sounded
unsuccess
bulls
prompting
crying
reforms
pregnancy
jacob
launched
isolated
jennifer
therapy
lemonade
tennessee
diver
jets
wary
##limin
##mas
##gents
##bus
##ᅩᆨ
stern
##acular
alib
sean
hern
grind
intr
aftermath
resume
overnight
cruel
accusing
parad
formerly
filings
stepping
singled
classified
taxpay
grandmother
creator
expecting
disputes
suffer
wrongdo
picks
physically
qualify
eliminated
##heimer
anticipated
entrepreneur
trauma
fitz
hoo
hiding
kath
lisa
oz
##ras
##ck
##eno
##arre
##ilar
stair
chip
##ateur
##una
spa
warming
retreat
insights
affair
movements
netany
homeland
laude
figured
influenced
negotiating
structures
flags
laughed
sponsor
explosion
mansour
prescription
barrier
legitimate
plaintiffs
destruction
warehouse
pitsilad
squeez
symptoms
pitsiladis
cyn
ruth
##rist
stated
beef
##thr
##esty
soho
drones
peer
exped
scrap
backup
counted
smell
##rator
providers
financially
ballots
westbrook
sexually
battles
pursuing
unusually
##eastern
transformed
updated
properly
844
styles
rallies
enthusiasm
hannah
lately
ou
soup
##zi
abrupt
herzer
cannes
expects
##okes
##uctive
britons
collar
walter
approxim
125
touched
draws
absent
conducting
tribute
permit
##eva
expertise
prescrib
krist
motorc
incredibly
evolved
offshore
deutsche
beirut
wrongdoing
aer
aro
dough
jav
mold
sony
나
##ela
##eling
##eta
##etically
heels
##immer
sue
##unction
amen
intel
export
marble
nose
straw
joel
##atherine
finances
generous
fielder
tempt
1976
citi
consideration
screens
dresses
publishers
recruit
elli
blazers
converted
maximum
shiite
gannett
dash
dave
fool
lan
mend
tying
##hou
##mers
##bell
##anor
##itudes
toss
##reen
##idable
bever
saves
##essing
##umed
##unted
brady
grants
drives
evident
fires
##avor
scared
##iances
##argo
insult
mao
##aley
concerts
walmart
prosper
suggestion
superior
credits
boost
gallon
delivering
observ
mccain
louisville
hunter
achievement
reflecting
degrom
shuffle
nurse
ecuador
superdeleg
bats
wo
yang
##uan
stap
shaw
##umber
excer
spo
spark
maneu
marry
indians
consent
genes
keen
slate
belmont
farms
autonom
##brid
posting
infection
developments
colleague
controlling
factories
nominees
precise
defenders
architects
retailer
belonged
duncan
anonymous
fingers
perceived
netanyahu
groc
lig
rip
##py
##riel
##dog
##hl
thorn
##igent
##oline
shall
shook
abe
plag
##ista
##acking
repeat
marin
colt
prelimin
##oken
shower
remem
located
killer
11th
employed
floating
misidentified
armen
celebrating
treatments
replacing
insurgents
considerable
robinson
pickup
collector
pursuit
scottish
strategies
ignore
checking
maintaining
explosive
borrowers
margins
jerusal
occupied
mentally
resemb
nigeria
datab
alibaba
jerusalem
aims
cer
eve
gag
lac
tier
자
##rim
##tering
alice
butt
meg
contains
##overs
relied
##grounds
improp
counting
demographic
barre
statue
airpl
##upid
extract
attackers
marketplace
midnight
explains
cauc
laura
quarterback
divide
excitement
compliance
criminals
guardian
minorities
permitted
##aska
fatally
duke
emphasis
crackdown
channels
jamie
roland
accurate
intimid
overseeing
landlord
brooks
improper
cease
dign
kyle
lamp
mere
samp
vest
모
##oard
##hire
##면
##oric
##arn
algor
##ppers
twin
knife
server
assass
files
planes
sidewalk
description
humanity
honored
survival
separated
louisiana
smartphones
disappointment
inquiries
initiatives
mandate
gifts
pirates
whistle
algorith
bones
wag
##atar
##ecessor
##acent
reun
asc
##theless
proc
exists
sole
##aching
marco
scary
governors
smiling
depends
cornell
farhad
advers
nevertheless
inflam
reads
convictions
moz
hostile
matched
##uffed
verizon
accountable
predecessor
fastest
##ophob
mounting
clinics
purposes
occasional
olive
distributed
unpre
kirk
nasa
enemies
2020
sacrif
rehabil
cotton
phelps
hawaii
bun
mitt
pf
pel
기
##oria
stim
reid
saving
##oco
spy
fever
##onda
commod
actively
booth
genius
##load
buses
discounts
##rians
refusing
manages
maine
homers
shortstop
immune
gradually
urine
panels
sweat
rockies
ambitions
stopping
doubles
preparation
negotiated
tougher
collecting
migrant
substit
columbus
arrangements
synth
skepticism
encountered
kosov
accommodate
suburban
firefight
propaganda
cater
mant
mull
##rons
##iency
##xon
topped
##eled
stere
safer
##osa
##ucci
grate
perception
ells
concuss
salaries
testify
glam
technique
organizing
divisions
juice
audio
##claim
ethiop
exchang
examine
assembled
joyce
folks
temperature
upstairs
stunning
##children
alleged
innocent
chorus
preliminary
dawn
kil
lone
laps
vend
##uity
##instein
nepal
trapped
##arded
ense
enab
crashed
teeth
##othy
helpful
##rators
homered
potter
panthers
deadl
replacement
copyr
slowed
churches
hurric
routinely
fleet
bulk
##ihad
procedure
adventure
overlooking
zealand
abrams
approximately
masters
##pect
##fare
thread
theat
theor
##omic
sha
pla
aggr
reserved
dise
undert
ministers
##rahim
simpl
simmons
vienna
##iki
reception
authorized
bankers
rockets
observed
lifestyle
babies
indicate
automatically
illegally
dissatisf
earthqu
praise
exclusively
swedish
acquisitions
indictment
grocery
gill
ip
nathan
rings
##eon
##bits
##books
theft
##oni
##enh
##enz
ships
trag
arsen
##endent
adap
inters
evangel
overc
contested
##ques
appra
##iang
quart
joked
##enger
delta
rank
##ippers
hamas
##esha
dressing
targeting
declar
automakers
succeeded
temperatures
choreographer
ibrahim
alepp
bryant
abstract
cens
dre
dup
dirty
jama
##ais
##jud
##hor
##ᅧᆨ
thumb
##ori
##enter
##thouse
exxon
sudan
leh
sheet
drought
scan
scope
blur
decent
instant
calend
12th
cairo
denounced
epic
hopefully
fashioned
predators
dominican
bloody
fortun
contractors
##abbing
lifting
attractive
constitu
heroin
bolster
charleston
tweet
experimental
implications
enjoying
vincent
backlash
pivot
superdelegates
fert
fitness
hans
jin
jab
masc
naked
tiger
##houses
##asso
stays
shin
neill
clut
reserv
pepper
##ishes
mons
flames
##ultane
retain
simultane
dealt
costa
banker
##play
format
hammer
castle
villages
averaged
gardner
displaced
cooked
communicate
opinions
frustrating
hyper
demonstrations
##wright
affirm
ugly
cautious
satellite
90s
danny
wrec
##rain
##ᅩᆼ
##eria
##esc
##itary
##ecca
##amo
hasht
20s
willis
poly
slim
barack
provinc
lesser
appearing
financed
techniques
188
##offs
goalt
funct
dominance
mounted
naturally
albums
ferr
loving
columnist
relying
felony
withdrawal
discipline
loyalty
precedent
agriculture
##laimed
lounge
margaret
diseases
aleppo
cree
cement
dia
ecl
wool
##nels
##uro
##ds
##edict
inhab
##olo
confer
aboard
##usters
liver
gram
grilled
##kings
##ogether
secular
countless
statewide
remed
mete
##lett
steam
refin
pope
equality
##quez
murders
specializes
lightfoot
friendship
commentary
shoe
computing
contempl
examination
ventures
presumably
samuel
instrument
aspect
lieuten
altogether
tyler
unpredict
60s
jaw
pined
ry
마
##low
##gus
##gio
##bank
##orge
##aco
isa
alf
chi
proclaim
pledge
arn
outf
stressed
##assion
carne
lasting
knocked
commem
##oves
assured
centered
loft
costume
potato
immun
charging
merc
limiting
volat
distant
radar
credential
rhet
spectrum
hungry
update
katz
sustainable
vegetables
bernardino
중
##elihood
bipartisan
embassy
ellsbury
bot
couch
dow
klins
nag
ral
##wald
##born
##eds
bearing
chuck
cong
trending
seam
unse
##orto
aged
grabbed
peru
stripped
coat
##ensing
##atern
median
homeown
steal
##eek
##byn
##parts
##aldi
hosting
emailed
drown
flores
1969
1968
gasoline
improvements
bombings
psychological
cathed
confronted
bradley
muscle
leonard
tuition
overwhelmingly
inevit
resignation
ankle
obituary
klinsmann
biz
bhar
cz
cogn
fond
ja
kesha
rus
wounds
##dles
##dling
##iac
##fly
thai
##enb
##vern
trash
pricing
##ivation
cla
brent
##ipts
meets
monument
interven
serena
backdrop
donation
underlying
endang
syd
downt
submar
shoulders
annually
confed
provisions
emplo
salmon
debates
classroom
aviation
steph
violating
goalkeeper
clubhouse
commissioned
##afts
absurd
blocking
poorly
contribution
ethical
fleeing
일
strengthen
impressed
printed
scholar
output
suspicion
adaptation
inevitable
paramount
hughes
trademark
copyright
fits
jockey
lakers
nail
rents
ump
##rics
##iya
ine
##omy
##elman
##acies
##irl
alz
prie
suisse
abortions
##anto
comply
mann
knight
flan
companion
preview
betray
slave
##lington
musk
confused
comeback
##insky
technic
##bean
painter
closet
1985
urgent
holmes
foreigners
jeans
credited
1970
lacked
##worth
tommy
counterparts
precious
##rorism
pursued
tunnels
symph
congrat
ancest
resolved
cyber
echoed
sequence
torture
steadily
cousin
stereotyp
pineda
bub
eis
fiat
jake
jihad
trop
##생
##aul
##power
##drew
##cock
##vi
##ener
##isk
stam
stones
stabil
##utor
withdrew
trude
##kee
##oso
abuses
spears
peers
strained
##ovich
deserve
workplace
brokers
geneva
curt
restored
conforto
hardest
investigator
viewing
##overed
180
moham
equipped
filmmaker
drawings
angela
credibility
archive
difficulties
accountability
multip
significance
benefited
opposing
disputed
catching
ferry
comedian
heavyweight
allegiance
sculptures
pierre
elevated
persuaded
wolfe
##avery
wisdom
marshall
trudeau
bin
cav
hogan
rocks
##uki
##col
##vet
##itis
##iderman
##etery
##olph
rear
reef
heated
##chez
##tha
projected
seaf
hass
envision
sochi
incidents
##amped
schm
##olds
weekday
instances
##azi
emo
signaled
suburb
respected
rapper
modi
terrific
solic
descend
chron
160
urge
consumption
##afort
legislators
scramb
worthy
medicaid
restruct
memorable
adjusted
leslie
spectacle
fragile
embarrassing
tackle
poetry
transmission
cinema
boutique
kenneth
cemetery
diane
kosovo
grateful
bak
buc
bully
census
fitting
igu
lung
mul
mog
nab
ridge
tended
vert
더
##uably
##야
##inos
##alg
alike
##illo
##agne
prostitution
hast
liability
manafort
twenty
exports
roast
anytime
courage
artwork
enduring
##azed
##iker
pastor
prevented
traditions
considers
waterfront
formidable
lowry
administrators
strongest
##ugging
superint
reportedly
matching
measured
sunni
scratch
dominate
commonly
imagination
duties
accomplished
coastal
rooft
pinch
trafficking
beside
jaco
categories
pleasure
scoreless
apologized
suspicious
poured
lauren
suburbs
leverage
lebanon
elliott
priebus
bise
hubb
kap
niss
zones
다
##rad
##zone
##itating
##olly
chad
convert
sew
segregation
leap
cliff
enrolled
griff
perry
##quet
themed
themes
invis
undermine
##athia
##rows
generic
hander
staten
detain
stev
halt
arguably
189
immers
breakthr
circles
wears
sunny
tracking
exceptional
rolls
ensuring
jefferson
fantastic
gala
reconcil
cosby
detectives
sabathia
deployed
warnings
yoga
quarterfinals
##keley
referee
fossil
wholesale
comprehensive
calendar
cathedral
breakthrough
aston
billy
liv
ming
mound
mask
pork
sink
tong
wield
대
##sch
##arms
##isal
##uther
hem
##chen
framed
chart
offset
brun
reproduc
partial
scattered
carib
decisive
##eps
##ensively
invitation
poised
wayne
retros
effic
mush
signals
##aha
norman
breyer
refuse
powered
hitler
antitr
coached
productivity
criticizing
batters
garlic
journalistic
berkeley
rocky
separately
meantime
utter
450
cooperate
extremist
duo
750
philippe
intensity
rotation
portrayed
carrier
zhang
nazi
unnecess
interpretation
portugal
jessica
schneiderman
arsenal
sydney
antitrust
dal
dwell
kyr
ore
owed
pale
rented
ze
##hart
##wa
##inho
##enous
##echn
##oto
shah
shorter
conj
ack
sheer
enacted
graves
upr
##auk
##odala
declining
##itty
lawmaker
backward
##velt
##aires
submit
##overn
110
freely
beds
archae
##iffe
mayoral
bayern
animated
exhibitions
cleaning
princeton
profitable
bidding
architectural
yellen
departments
heroes
adopt
applause
lucrative
mansion
renovated
bailout
cigarette
pockets
certific
revelations
cunning
invasion
appetite
rachel
maneuver
declaration
provincial
iguodala
benn
dock
erupted
gul
sway
tune
wade
##poken
##fund
##22
reiter
shorts
comcast
##asty
worship
brien
resid
polish
##irect
stranger
preservation
##ailand
pointer
##otherap
endless
instinct
corbyn
greeted
empower
oppose
infected
entitled
terrace
possibilities
irr
##attering
sanchez
garner
approaching
damaging
baylor
nominating
malays
reflection
appealed
characterized
boris
tribal
##marks
cooks
automatic
towers
promotion
spectacular
colonial
gangs
pedest
##breaking
munich
tweets
distinction
passionate
juris
heightened
royals
concentr
nicholas
revenues
percoco
reckless
helicopter
jungle
ensemble
mohammed
bisexual
ian
mistr
ot
tav
vivid
wig
##gets
##bie
##부
thailand
##around
##rez
ongoing
##state
ate
chant
prolong
##ocument
ort
##usting
clim
compare
disg
flip
relent
implement
boots
governance
##ieri
persistent
reduction
proportion
midfield
releasing
russians
sundays
competitor
socialist
sellers
nationally
berg
browns
##sterdam
caption
teaches
principle
revealing
throws
punct
adjacent
lovely
strikeouts
understands
blew
substantially
innovative
wheelch
affiliated
physician
advertisers
ridiculous
graphic
siblings
garbage
hernandez
database
ralph
bizarre
alzheimer
bits
cant
fict
mim
maps
nixon
oy
sings
##iq
##city
##bes
inability
toil
##rep
stupid
itunes
reim
sake
chin
weber
plates
spare
##astically
##akness
##ouri
aller
upheld
##acek
beck
crushed
quir
##asses
undocument
consort
imposing
wherever
curiel
produces
executed
modified
walters
locals
15th
apology
##ushi
##aney
islamist
encry
motors
avoiding
enforce
mistaken
logo
roose
corey
marcus
pakistani
distinctive
reconstr
gorilla
portraits
dependent
isolation
ronaldo
911
opioids
obstacles
intriguing
##garten
remembers
meteor
nissan
undocumented
bah
gur
lend
mik
nost
nike
rays
rams
rikers
sidel
tyr
##aults
##oking
##pm
##워
##ication
##reach
bee
leak
bru
amsterdam
canal
##iah
strang
##ateral
depr
medals
emir
harrison
meter
infield
organize
sumner
moist
##appropri
sank
merced
silva
13th
1982
simpson
circus
eyed
treaty
expressing
1971
1973
crisp
bayer
constructed
indianapolis
exhibit
declare
stretches
determination
purchases
bonus
borrowing
breathing
overwhelmed
phillies
sneakers
gilbert
clashes
millennials
것
ambulance
parallel
tragic
70s
bishop
gaining
hatch
tender
wand
##pat
##객
##드
##entions
seated
soda
quo
interim
fines
backs
##ftime
##athy
endured
surreal
##onsc
##linary
curve
supportive
##cedented
confron
operators
investigative
patrons
halftime
glas
releases
poses
187
employer
travels
ranch
practically
treating
rebound
recalling
1974
catast
##hani
aspir
##하는
abandon
upstate
affiliate
##적
shouted
alberta
gabriel
kunduz
##으로
firefighters
monsanto
caribbean
ais
bounced
lions
mack
tense
vu
##game
##르
thro
proven
##oca
unle
brig
amp
##ouncing
appla
serb
imports
showcase
minors
guided
slogan
##amese
barriers
corners
farther
provider
##ups
directing
johnny
labels
administrator
failures
merrill
consumed
texts
pulitzer
stole
medication
tenant
wondering
participating
frankly
springs
punk
stretched
alternatives
proceeds
troubling
unpop
motivation
mortgages
freddie
mechanical
gregory
calculated
hornacek
prayer
fluid
horrible
condemned
harassment
mysterious
ough
excerpts
unprecedented
sacrifice
goaltender
celt
pine
pile
vogue
##din
##lets
##matic
##burn
##비
##icia
##otes
##urance
reyn
atomic
fright
chips
neat
##ulus
trillion
levin
click
cram
interrog
preakness
boeing
demol
genoc
subt
norway
loos
refers
payday
operator
trades
firearms
##uza
radiation
christmas
bitco
plea
1967
narc
counterter
fortunes
attorneys
peaceful
##guard
montauk
transformation
novak
delicious
ahmad
settlements
reliever
cherry
oriented
toyota
enthusiastic
prestigious
rafael
plagued
earthquake
carnegie
inevitably
bil
cott
kin
md
surn
##hem
##harm
##zb
##치
##erving
congo
abduc
##istical
newer
clip
adequ
herald
enl
overr
containing
declines
secrets
yorker
subtle
brett
delivers
engines
moreno
afflu
angels
risky
misle
jeb
garros
athletics
biography
mccann
spreading
witnessed
seekers
feeding
venues
diplomats
hungary
dragged
recruiting
mathem
eurozone
swinging
branches
welcoming
welcomes
tactic
beliefs
conclusions
households
mosquitoes
feminist
cautioned
relaxed
consciousness
sovereignty
hutch
amenities
simultaneously
downturn
superintendent
hubbard
invisible
consortium
roosevelt
baff
gown
hed
jub
mick
mason
##namese
##making
##ᅦ이
stom
stiff
healing
shocking
##the
##ando
##earing
seab
brass
grid
grip
recount
##uber
pew
overly
blake
##issance
##weg
campbell
starters
publicity
##cont
curtain
pointers
moder
propon
midst
traders
ideological
##appa
volley
energ
combine
reviewing
1977
admir
penins
boxer
animation
acknowledging
battlefield
occasions
oliv
revolutionary
venice
vietnamese
reversed
outpost
diminished
liberties
elephant
provocative
disorder
nickname
kenyatta
ritual
exchanges
evangelical
lieutenant
bubble
unpopular
counterterrorism
aunt
aaa
bing
cel
dens
gau
nico
sushi
wise
##uating
##ania
inject
##imeter
alarm
chun
hagg
##agh
prints
ori
##abe
##ieval
repay
resisted
drake
invite
schum
deserves
smok
medieval
warburg
weekends
famously
cape
conceded
swall
refusal
poster
mode
salon
territor
convince
shortage
references
uncomm
sunset
opted
presenting
ambition
trusted
contractor
mccr
bullets
surround
integrated
preventing
oliver
outlook
boundaries
whitney
belgian
divorced
satisfied
tumor
deportation
shouting
vibrant
assignment
iconic
plunged
emanuel
unpredictable
commemor
homeowners
bharara
endangered
jurisd
bands
bapt
gosp
len
lender
yul
##pool
##sil
##ᅧᆯ
##esa
sticking
##uri
heir
##opes
seg
placing
##ardy
sheets
grat
grie
recur
repairs
sciences
carved
##ovak
indig
deserved
backyard
depict
farmer
statute
profess
casey
starr
execution
valuation
patience
northwestern
mck
champagne
##boards
murd
quarterly
juven
1987
14th
1975
brandon
restricted
diabet
paths
mandatory
anxious
accompanying
screaming
fascinating
credentials
symphony
restructuring
ortiz
ought
surname
stomach
peninsula
orioles
08
ace
cec
cave
fargo
kan
lent
mock
nancy
slo
wu
##part
##rition
##kov
##그
thwart
##itous
##icides
##iler
##otics
stairs
##urry
##uruza
##iments
shaking
fraction
chim
convey
##andro
##ocke
newcom
##hero
amateur
grief
residency
##aukee
evil
conting
##berman
blown
playground
accidents
usher
##inka
memph
slip
continental
refres
patric
ski
recordings
paused
technological
loses
taxi
lightly
1981
burke
earliest
inspire
expectation
grounded
acceptable
existed
declaring
examining
experiencing
trailing
tastes
venue
lucas
scrutin
confrontation
yields
ukrain
culmin
ahmed
apologize
transparent
porch
tolerance
forbes
forbid
muguruza
obscure
unnecessary
nostalg
memphis
dum
dual
niel
rican
tons
wan
##eaux
##iaries
##waukee
##kill
##bin
##erb
toast
##isure
##icial
##rea
stur
alley
##ulent
##user
exh
unac
clo
manif
##uctor
cohn
runway
retrie
barber
secondary
handgun
milwaukee
norweg
speakers
receives
lob
missouri
broadband
convinc
specialists
supermark
misd
housed
favorable
trustees
participated
obsessed
displays
mccar
alexand
glasses
##axed
novels
recovering
lovers
##writing
kidn
oakmont
marginal
airbags
frederic
prohibited
unwilling
bosch
flexible
sergeant
upgrade
rehabilitation
dissatisfied
mercedes
bacter
dess
jpm
nord
oval
pills
rena
sisi
woo
woke
말
오
##oons
##hot
##onn
ink
styl
trace
##agus
##usch
unb
leaked
spinal
brush
enact
moreover
resh
incons
marg
disgr
quote
quinn
monica
rooted
relies
poem
betances
persian
curb
##rieta
realty
policing
##ennial
violate
goalie
##forward
excuse
probation
##getown
georgetown
##이다
1965
slowing
searched
surviving
slee
musicals
sporting
splash
fatig
applicants
chemistry
elimination
belongs
nova
tanaka
outright
kurds
unexpectedly
##했다
coordinator
matthews
judiciary
학
diagnosis
explicitly
obligations
unhapp
bicycle
transplant
tossed
gospel
nielsen
05
dv
dangers
gins
hir
lund
lively
pand
vague
미
비
##bally
theories
##eshold
inappropri
##etics
ster
hew
##uling
unbel
arrieta
shep
sheep
##oding
##aches
crab
##ampo
copper
parish
##grad
counties
threshold
bets
courthouse
minus
artworks
##lander
retal
slot
slower
slavery
persist
clever
nationalist
filmed
breed
##rolling
meters
posters
moroc
summon
caf
mcg
greenhouse
grandpar
1983
1979
addresses
oversaw
##goers
있다
automaker
romance
mortality
entertaining
##track
julia
julian
rigorous
switched
friedman
oxy
mourinho
physicians
cocktails
deliberately
inflamm
diaz
rooftop
cunningham
mccrory
unaccept
jpmorgan
dennis
ios
naval
pause
rides
sends
tucked
##aill
##tive
##sm
##yen
##hs
##bone
##onia
##elier
##utors
##irth
shipping
albe
notorious
segment
##alls
##ifully
spell
spray
grapes
incumb
sco
monster
descent
maid
##ahe
releg
missp
exploded
electrical
regulated
customs
palmer
janet
1960
contrary
lacks
photographed
bernstein
straightforward
attraction
trailed
shrug
licenses
licensing
hello
cartoon
hackers
survivor
choreograph
weighed
optimism
latinos
joshua
intentions
excessive
chanel
gesture
observers
unrest
component
enrollment
taxpayers
hurricane
appraisal
genocide
bitcoin
albeit
ditch
hust
kris
lament
lapt
mak
ousted
pie
rizz
sr
vand
##ei
##pers
##uum
##iations
##mare
##주
##97
##ongh
##arity
##aria
##enthal
##etz
##etical
##urity
rejection
ald
alumn
##ante
meyer
canvas
marie
attitudes
donate
boge
artif
regime
surpass
setback
goodson
hardware
protective
load
##ternal
distress
mcl
##elters
identification
jeopard
garland
jackets
deterior
slowdown
influx
packages
cashman
introducing
introduction
arabic
victoria
emphasize
##enko
pilgr
seeds
flooded
rigged
cosm
illustrated
disagree
rumors
stunned
experiments
emotionally
abbott
hulu
indoor
unveiled
autonomous
adapted
hashtag
conferences
fictional
unbeliev
bacon
curs
dread
lt
nond
oven
porn
##히
##hill
##장
##37
##atz
##icy
##utt
hezb
##illon
hailed
abol
oral
##udge
offenses
adelson
resent
resil
##quis
blanc
interactions
invented
worlds
vegan
##erno
campaigned
raid
tops
gloss
stephan
fireplace
titan
16th
nonc
televised
threaten
creators
damages
lining
embod
robin
brazilians
picasso
routes
unsett
layer
exceptions
freshman
prospective
magazines
montreal
flagship
surfaced
instructions
foxes
harvest
updates
1930s
intentionally
rallied
rebuilding
hitchcock
bridges
workshop
theatrical
wheelchair
norwegian
dated
hats
hitters
rash
sizable
##pit
##jan
##mouth
##대
thiem
##inis
inexp
##armed
##itas
##isch
aspar
aligned
trim
##emos
prisons
##ainted
##istically
##ptions
accent
finn
finland
surrog
sliding
farming
advances
handing
##rik
delib
stealing
passport
glove
storyt
favors
audi
civic
17th
##ueling
balcon
consuming
favorites
1966
embed
mixture
raped
obsession
rhode
stuffed
ceremon
hunger
colonel
affecting
##wartz
wireless
manufacturer
legitim
ivory
agricultural
rendered
gambling
incentive
supervisor
rehearsal
fulfill
airplane
griffin
affluent
diabetes
asparagus
catherine
diving
dyl
eov
fent
gaz
laz
rim
ripp
umb
한
##사
##gate
##려
##bird
##버
##enner
##idt
stagn
##ami
##urer
shelters
##illard
levy
plac
clad
brist
upsc
partisan
justify
##ounters
colbert
flown
eli
paras
didi
impul
undermin
##hner
retiring
publications
banner
countryside
clem
arrives
lottery
walt
##park
tapped
grows
exploration
listened
potent
westchester
moh
doug
freel
specializing
fellows
snapped
magical
encounters
creativity
hearts
battling
christians
insurgent
unfavor
beaches
documented
biden
outspoken
citizenship
embracing
supposedly
chapel
hawks
airbag
populations
asserted
tumult
tsai
rewards
exceeded
watson
clerk
outcomes
deferred
buddh
imprisoned
wreck
rhetoric
eovaldi
01
bale
baked
bubb
holl
mit
macy
바
##main
##mod
##kind
##52
##erable
##oust
##ilia
beard
fren
chains
weiner
debr
unite
marlins
##active
accessor
schwartz
assaults
insight
opener
barney
newsroom
raiser
starred
infections
humble
likelihood
##bey
travis
rises
successes
grandchildren
erit
hampton
improb
awful
varied
florence
considerably
francois
purdy
hurting
separation
demonst
bronze
jumping
tunsil
outsider
extremists
aiming
instruments
egyptair
tasting
stonewall
lieberman
solidarity
electronics
buffett
flooding
mentor
##daq
honestly
nasdaq
decorated
scholarship
enhance
crops
exaggerator
ocampo
genuine
czech
seafood
##otherapy
alderson
bite
bert
bikes
dere
daw
dang
eug
fals
gays
honda
lens
lamb
mig
ras
tus
##top
##cup
##most
##fect
##face
##와
##bling
anders
##ilings
stagg
##uter
foreman
reactions
shaken
traces
haq
weill
##opsy
suited
suarez
unre
unint
spends
ard
clues
brains
##iped
##inding
##ptons
justified
accred
preserved
flesh
mines
medi
slovak
persecut
grey
redd
tales
nightmare
metaph
issuing
glenn
parkinson
reaches
committing
processing
cheered
hostages
1972
historians
heaven
israelis
disprop
moses
danish
##anche
creditors
renown
complexity
utilities
correctly
logic
danced
scandals
touching
shrinking
cuis
karen
columns
scenario
##gregated
eliminating
juliet
applying
counseling
limitations
tanks
translated
traumatic
unfairly
disturbing
components
inclusion
vessels
exhausted
abruptly
detainees
uncommon
unacceptable
deliberate
upscale
bree
dyer
fount
fathers
goth
horm
ivan
lloy
pall
tide
보
서
##iologist
##jar
##vist
##xy
##inces
##anmar
##arcer
toe
touring
ont
##rod
item
beans
##terday
chasing
habits
seal
lex
leisure
orn
##mented
clippers
upside
timothy
incarcer
evans
##berger
myanmar
pharo
thrive
##news
politico
postwar
facil
costumes
missiles
homicide
directions
mcil
specialty
regulator
divid
firmly
hearings
##afe
##screen
editorials
cellphones
##recy
darkness
surrend
sensation
yesterday
hybrid
paired
performer
borrowed
expansive
battered
sacred
hispanics
comparable
bailey
ceilings
recommendation
evaluate
abdul
linda
oxford
overlooked
extrad
bargaining
rahman
ineff
##overnment
hezbollah
disproportion
pharoah
fons
fury
gust
khal
lets
mint
mocking
ps
riley
troy
vas
##oly
##och
##ridge
##iola
##mun
##kh
##enheim
inbox
##ischer
##asper
sting
reacted
reuters
weaken
bryan
outbreak
##awr
blend
##oglu
monroe
secrecy
wrap
undergrad
defects
slid
subd
charming
ears
visitor
este
valent
glim
entities
kinder
##places
directive
##atorship
candy
snaps
burd
hamptons
analyt
inspect
positioned
independently
ordin
contributing
flyers
appointments
applies
symbolic
appreciation
concentrated
lonnie
flawed
veto
revenge
outfielder
alfred
fonseca
boring
raced
sans
€1
##ozan
##eels
##qvist
##gue
##orf
##orah
whale
##aca
heating
unst
acid
amn
sof
soared
intends
##inea
timber
reserves
dray
mario
##quer
##qual
scalia
playwright
commissions
elusive
brock
dement
syrians
meditation
slice
coral
courtyard
##press
realm
debated
billboard
explored
technically
conventions
##etto
divisive
identifying
futures
tracked
mindful
booked
furious
multim
crises
rocket
churchill
assisted
searches
embry
cubans
robber
illumin
slept
layers
shutout
roses
saudis
cabrera
establishing
conditioning
hyd
spectators
powell
##iatric
barbec
objective
wishes
choreography
않
conceived
boulev
uniforms
hatred
tricky
certified
dublin
cocon
correspondent
confirmation
jesse
alarming
sailors
affirmative
toilet
reynolds
professors
renaissance
mcilroy
akin
ost
pact
pets
voy
zoning
zimmer
##uaries
##sky
##cour
##마
##onna
inmate
##idi
wheat
beg
alumin
prone
##iva
exter
seas
seoul
##ghazi
##aky
composed
adorn
##ubar
upward
quint
impair
showc
medivation
charm
headley
patron
gloves
##strom
solely
boarding
clearing
productive
davidson
burr
secretly
graduating
origins
accounted
analyzed
rebecca
replay
admired
##ommun
buddy
photographers
##working
battleground
derozan
benghazi
tribe
dismant
fixing
fergus
waitress
dismissal
rescued
labeled
1920s
carpenter
gentr
gregorius
rudolph
thoroughly
vessel
subscribers
tibetan
guerr
broadcaster
unsuccessful
##onscious
mickelson
ukrainian
unhappy
grandparents
draymond
aluminum
aven
bible
dic
hij
ki
mell
ner
ngu
rated
rage
til
um
vog
##ean
##uously
##cr
##hur
##master
##anyl
##isp
ala
churn
abund
##ustomed
##akh
clause
outlined
intend
mars
martha
##iani
colin
joh
backers
##issue
campuses
startling
##iox
slaves
basel
discont
idol
signatures
concessions
##rolog
caliber
refrig
passw
glory
northwest
eventual
mckin
wallace
representation
philharm
viral
granderson
effectiveness
encl
emergence
creatures
booking
inspiring
multic
unlaw
malcol
medications
handsome
episcop
semit
laying
substances
sprint
outsize
drops
psychologist
consequence
ellis
narrowly
jurors
ladies
casualties
pistorius
stalled
hindu
knockout
reacting
dwind
incentives
privilege
hazard
hollande
overturned
vendors
isaac
중국
efficiency
indigenous
mccarthy
##aheim
unbelievable
fentanyl
cuisine
amnesty
ferguson
malcolm
episcopal
ain
gow
gently
mau
mott
py
pian
piled
rows
wint
zo
내
##pec
##daughter
##yards
##care
##hy
##hum
##gling
##erning
##athing
##atics
##anne
anat
anaheim
##ombo
##ecks
staging
wass
withhold
neal
##ums
##ivated
weaver
exotic
soaring
mead
intric
resorts
blond
thrilled
bobby
objected
smiled
depicted
insuff
##unders
discomfort
seasonal
handles
subpo
harmon
viable
inflic
glimp
angle
ideology
fallout
bookst
filmmakers
safely
##ruption
projections
christine
hallway
admitting
225
lacking
essence
logan
miracle
##anye
benches
tendency
parliamentary
weakened
cracked
powder
crews
absolute
guarantees
pierce
chaotic
shadows
vigor
pleasant
lonely
sympathy
liquor
wardro
condemn
lavish
quarterfinal
denton
lodge
elderly
grappling
dugout
tasks
tillman
hassan
reiterated
tavares
manifest
refriger
subpoena
glimpse
flic
fancy
faxed
gucci
melt
naming
sided
tul
wi
과
##nut
##iology
##gom
##grown
##제
##baum
thie
##isans
onc
##ige
##olved
fraught
seb
acute
##apova
newest
newark
ampl
uphold
resumed
drif
marse
marines
contend
cried
quad
cares
accustomed
inviting
##ovan
scher
relate
pole
muj
reth
retro
insists
##airy
immin
maur
banning
advising
curators
charities
staring
lethal
sharapova
johns
facade
singular
skip
debts
billed
apoc
halfway
##borne
cultures
superc
hostage
170
racially
robot
counterpart
recognizing
precision
attendees
punished
rosenthal
vacuum
renting
demonstration
instruction
determining
feedback
##ofi
julie
resistant
romania
appropriations
2000s
clarity
assertion
intensified
molec
아이
subscription
dilma
sympathetic
awaiting
levine
unfolded
vineyard
graswald
jesus
absorb
crawford
wyoming
astronom
algorithms
synthes
muller
functions
mogul
reconciliation
confronting
misleading
misspelled
dementia
07
bib
cort
cyr
dorm
fiance
gat
gerald
jak
kurt
lakes
rab
tart
##net
##pace
##witz
##재
stig
bekele
shor
shattered
##cha
alv
alicia
##illery
cheng
##aga
##keys
unm
orph
##uding
arna
offs
ade
enrich
recons
sod
intact
resett
noon
thriving
boe
insert
slope
greet
##ahl
charco
operational
chiefs
looming
looph
singers
singap
##istered
ballistic
northeastern
homage
convoy
mergers
superstar
##anka
175
hamstr
bedford
##uffy
##unta
halls
insurgency
hob
predomin
prisoner
overshad
branded
destinations
acquiring
casinos
amounted
attracting
dreamworks
sprink
deputies
resource
ramos
fitbit
assuming
germans
gorge
evolving
andrea
relieved
unfortunate
convenient
bargain
patriots
inherited
공
varying
unrav
undercover
cycling
lingering
prolific
skelos
dignity
hastings
prolonged
aisle
celtics
dylan
demonstrators
imminent
arnaud
charcoal
fior
gem
latter
mt
mish
nin
sot
tally
tire
ub
전
##gi
##gerald
##bach
##esco
##arked
##leas
##acuse
##amil
sham
##char
propr
weaker
whoever
suz
sealed
##osity
##osition
hadid
##abol
brink
dose
griev
##avo
accum
talents
putt
persona
edges
steering
hopkins
lover
affection
authoritarian
billionaires
entity
##retion
186
##lessness
messy
gunfire
specialized
goldberg
superhero
identical
nonf
audit
activism
circulation
verge
songwriter
syracuse
vanished
liberation
necessity
##rella
blockb
defining
structural
towering
extremism
karage
renewal
emphasizing
compensate
recruits
pilots
blowing
temperament
##들이
desperately
mechanics
coordinated
pigeon
rankings
siri
washed
vibe
enhancing
summers
fiery
pearl
merchand
sketch
ebola
postponed
alphabet
siege
inaugural
trigger
fitzgerald
##ocaust
convincing
inappropriate
oxygen
embedded
singapore
apt
batch
cac
cod
dazz
huff
kess
kanye
nons
okin
ripped
tidal
wawr
산
영
##상
##oir
##pse
##cely
##via
##feed
##xed
##미
##ᅳᆨ
##터
##aned
tooth
##iscl
sta
stitch
stored
##ader
##ampton
sax
##imited
chand
##ceph
##ulously
abadi
clam
complement
liu
grape
graft
dragon
##acht
crushing
##irez
stras
strangers
cared
carroll
interaction
serial
prejud
popping
donna
boot
warhol
defect
instantly
##ierrez
slog
sometime
##ahan
economies
metic
protagon
locally
skull
imported
antic
sanofi
waist
massage
revised
snake
denying
breakdown
holocaust
balanced
sooner
unlimited
petty
biology
budgets
soundtrack
baths
guardiola
##kinen
trailer
clinch
novelist
automob
montgom
##iosity
departed
instructed
complications
ramirez
commitments
karl
tweeted
assumption
disappearance
##walks
daunting
croat
forthcoming
brewers
subsidiary
unconvention
awaited
advertisements
flexibility
pipeline
delighted
inventory
navigate
duda
eagle
unanimous
pfizer
umpire
encryption
thieves
wawrinka
au
avers
dys
gw
gin
gaps
hints
hiking
ic
iger
jol
kicks
lime
nam
nets
nero
qatar
rue
viv
vault
##oa
##uer
##law
##yder
##fr
##유
##반
##oub
##reated
##ilo
##ilation
##imm
##ationally
##ocity
unfor
newtown
clara
outreach
timely
marina
crick
flurry
parked
underne
obstr
ours
slaughter
barnes
greene
realizing
economically
aired
vik
deborah
militia
militias
organizer
condo
merit
revive
grande
burger
circulated
livingston
awes
1978
versat
hobb
nominations
selections
trustee
paulo
tribeca
norms
corrections
trails
attempting
roller
3622
rubber
flowing
laughs
printing
licensed
hawk
translate
maple
6397
##들은
mechanism
7652
disciplined
brutality
predictable
tariffs
surgeon
rifles
riot
transcript
nazis
##archy
gutierrez
havana
beneficiaries
laundry
있는
incompet
scouting
refinancing
employs
weekdays
malaysia
baptist
학생
debris
renowned
ontario
boulevard
coconut
insufficient
unconventional
underneath
dior
dumb
ducks
jugg
kicking
lace
laughter
nass
pec
riv
ruins
sif
tir
vardy
witch
##aic
##tar
##oz
##rus
##cor
##vor
##년
##20
##itative
##reens
wheels
##rook
shade
##illas
truce
segregated
unreal
sper
spacious
compiled
##ellation
ammun
##ucting
grain
cany
pean
contamin
cripp
strongh
##00s
paraly
underwear
ende
##loaded
retained
##atters
goodby
##bras
empt
edged
severino
shari
designing
patio
185
holder
filming
shootout
revis
touches
##ercare
biot
hurdles
wildly
##napped
outsiders
promptly
savvy
instructor
##written
kidnapped
victorian
tablo
occupation
composite
4637
objections
synag
appreciated
dramatically
remarkably
railroad
evaluation
loudly
premiums
disclosures
subsidies
dynamics
blanket
bachel
enjoys
helicopters
정
mossack
motorcycle
ethiopia
curtis
seabrook
derek
philharmonic
ubiqu
ammunition
ae
cus
cage
faded
gel
krem
lighth
luther
mature
nerve
ouster
pim
pant
pga
sara
somed
tid
되
##eus
##pa
##iably
##lon
##itations
##idays
##otion
##storm
beers
sailing
shear
atroc
altered
##ivo
suing
seize
##asting
offenders
manz
envelop
outing
peril
reper
dried
expose
becker
contender
noble
nobel
strand
carriers
coh
coaster
cobb
2019
prey
popped
buys
thrill
reminis
genome
syl
supplement
downst
capabilities
milestone
resting
realities
##perform
##atories
sharif
shortages
pressures
firearm
regulate
superb
silk
customercare
denim
selfies
horizon
biological
kenyan
languages
layoffs
reveals
##obi
##ascar
rainbow
promotional
##진
anthem
diplomat
magnetic
##rock
reinv
void
leaned
accidentally
partnerships
weighing
conceptual
disciplinary
koskinen
revelation
embarrassed
naj
pistol
##manship
cassius
exaggerated
petrobras
renewable
interpreted
staples
concussion
ipad
quartet
jinping
inhabit
murdered
accessories
apocaly
karageorge
someday
bast
ced
codes
creek
dive
gad
hog
sard
wend
waving
xin
zomb
때
##tles
thiam
##atog
##asi
stain
sticks
##erslev
beats
neon
weiss
deaf
seine
unaware
abused
clare
manson
##ucous
willerslev
grizz
inclined
contenders
crunch
tehr
cov
securing
sche
buoy
advancing
rede
realistic
##ologically
swings
swath
severely
humil
midway
skilled
missions
116
antib
mohammad
informal
connects
globally
espaill
##ographical
##boat
chev
prosecuted
funk
telegr
matchup
problematic
motive
fearing
lowered
peterson
responsibilities
contrace
vanity
precinct
bowery
machin
flee
connecting
spirits
psychology
eaten
tightly
podemos
recruited
magnet
##respons
randy
vulnerability
disabilities
butterfly
ingredient
sacrament
insisting
orientation
sandwiches
accomplishments
relocated
underscored
gentleman
elephants
petersburg
woes
thornton
lehman
volatile
submarine
bennett
relentless
patricia
ginsburg
alumni
marseille
tehran
espaillat
fist
frog
goss
jong
lud
mash
rider
sigh
vs
wals
yel
소
##ᅢᆫ
##ti
##sk
##mund
##gow
##kok
##운
##inational
##atus
##enstein
anec
##ayor
##adic
fork
##ima
shapes
deed
plug
##aby
clashed
cluster
bran
enable
outfit
perkins
repeating
##iao
disability
blessing
roasted
##ultural
desir
##ickers
donovan
guinea
defeating
regain
surged
insects
bashar
discretion
101
106
105
subjected
##rats
rais
##onte
delhi
arrivals
extinct
steak
populated
explores
liston
listings
homem
307
competitions
holders
shooter
processes
snyder
denmark
uncovered
practiced
multinational
settings
independents
selfie
answering
overseen
spotify
acquitted
medicines
intelligent
micros
torres
nytnews
bushwick
mirrors
##에게
stadiums
bolst
1945
bonuses
worrying
comparisons
bearer
desperation
bomber
pharmacy
spinning
legendary
smuggling
cycles
cancers
arkansas
wagner
fortunate
reservations
bakery
stevens
##contin
kremlin
repertory
coveted
anecd
09
30s
bend
bio
lillard
mond
sly
tac
tones
tissue
wit
wow
zar
zarr
##수
##yang
##vo
##omayor
##ioned
##elly
stump
stuy
forged
forests
##olent
fratern
haiti
##ema
##aints
##unken
plaw
plains
##acked
compassion
herbs
outlet
soap
crafts
interrupted
##ails
flam
pretor
preference
##ulte
indicted
americas
backgrounds
bug
showroom
booming
##rah
olds
streams
curric
##ression
raucous
eddie
extending
refs
estr
salerno
glen
ballpark
watchdog
##cester
facto
posing
irreg
generating
injust
silly
snakes
turks
unconscious
##ecki
rebell
similarities
villagers
##ooned
dispatch
louise
fixture
sensit
##losure
texture
surfaces
frequency
federations
shrimp
diplomacy
ellen
breathe
##repres
cycl
translation
mcdonnell
professionally
gonna
tailored
solarcity
fundamentally
ibm
klay
pavil
gymn
resemble
hartford
pioneer
reopened
laundering
fernando
##용
darty
arose
substitute
enabled
conglom
descendants
uprising
sebast
sotomayor
suzuki
manziel
50s
daring
diox
ejected
hilton
mes
nus
nurt
pyr
rup
ruff
rope
sip
wiz
yor
##ystem
##car
##greens
##른
##우
##ᆷ을
##불
##arin
topp
toys
##isy
stint
##advant
##igate
heb
alaska
congregation
##unts
plight
placement
cleric
##ours
##ouring
ench
graff
##ipted
upro
##kshire
##ignant
evan
disreg
disadvant
scare
bloss
##ogen
endow
##loads
busch
advise
handc
concerning
detected
comey
sharon
sums
distraction
solitary
suspend
##incts
misunder
ern
improvis
trevor
criticize
winding
commentator
personalities
1962
ordering
embroid
liberals
lifel
bowling
attendants
examiner
qualities
screeners
transforming
stretching
bleeding
romeo
moody
whiskey
laden
framework
libyan
없
stirred
yogurt
disagreed
exempt
rejecting
indoors
bothered
mamm
bribes
bureaucracy
carnival
telecommun
protein
reigning
commodity
schmidt
emoji
kaplan
certificate
nicole
yuliya
juvenile
bacteria
dessert
artifacts
miguel
nguyen
propriet
walsh
plawecki
dioxide
bids
dmit
ero
ft
lur
lich
lue
lush
panc
sections
vern
wong
zach
우
차
##tw
##pid
##rin
##lies
##gone
##티
##ecurity
##stones
stumbled
forens
##leep
##amel
##lys
heal
##iri
shap
##sein
align
alito
chew
trian
hailing
prin
##ateau
notified
##ocation
abra
adoles
brave
manusc
allure
incub
incomes
##achers
overst
crush
inval
##itton
##ultz
pools
impart
brow
##ugu
slider
goodell
curated
turnaround
businessmen
charism
seeming
##leton
calories
happily
happiness
lett
propelled
infect
##ikov
centerpiece
killers
pasta
criteria
classmates
terrain
terrifying
competed
nonwh
burial
practicing
globalization
richmond
weary
auster
pena
settling
dinners
congressman
hospitality
berth
nyc
opposes
collectively
exchanged
assaulted
kitchens
rentals
commercials
yelled
shelves
koh
appliances
bangkok
smoked
magnitude
parenthood
launching
whitman
coordinate
swiftly
permanently
vitaly
devastated
concentration
indonesian
resonance
landlords
pearson
nutrition
recreational
broadcasts
patterson
inaugur
unrelated
##ophobia
jamaica
cognitive
tropical
retrospective
ramsay
emirates
jurisdiction
lobster
supermarket
misdeme
inconsistent
stephanie
hamstring
goodbye
downstairs
06
bum
bans
cute
eg
gaming
gaze
heck
jenk
mn
mocked
nig
sally
노
##dings
##wer
##zak
##30
##inated
##inqu
##ications
whip
onetime
stif
##adan
##leum
##lements
##acerb
heft
isil
##iman
shades
asleep
frances
chess
##agged
proving
proxy
exacerb
##unas
godd
outd
drunk
incon
marque
##pta
##ptic
blu
playbook
caro
monitors
knees
coy
sergio
flipped
##ancies
workout
genetically
barring
countrywide
builds
internationally
mighty
##ribly
critically
skate
distrust
##inski
homose
capped
likened
footing
footprint
forming
videot
connor
thoughtful
identities
prosecutions
townhouse
##shine
treats
analyze
pete
cope
poorest
antique
birch
commanding
indicating
shutdown
vacant
prominence
ratio
feeds
1940s
##idelity
voiced
argentine
hacking
renovations
highlighting
strokes
arbitr
eligibility
illnesses
##points
고객
folded
sectarian
prosperity
armenian
ibrahimovic
proclaimed
envisioned
astonishing
tongue
glasgow
applauded
recurring
newcomers
refreshing
inflammatory
laptop
storytelling
slovakia
wardrobe
cyrus
gorgeous
merchandise
montgomery
sacramento
curricul
conglomerate
00
auctions
bac
cush
cattle
duc
erect
ig
kor
kale
kane
ler
lugg
lanes
moo
pud
pairs
rect
sore
uef
zappa
##iating
##laughter
##hear
##fest
##ᆷ이
##erals
##atollah
##arious
bew
beeth
chateau
neph
##ulates
prizes
exams
arav
##akis
comparing
herman
amass
uphe
feud
##ogne
carson
schilling
induc
##eryl
bros
##erty
slap
autobi
charitable
respects
raids
provinces
standoff
designation
halted
ballroom
preval
freeze
davao
competency
mcaul
illicit
reasonably
devil
merits
turbul
completion
oils
variations
floral
satir
diner
histories
unfamil
francs
240
beautifully
microp
capturing
tribes
frankf
attractions
surrender
consulted
stationed
##guards
advantages
rubble
collaborated
##holm
occupy
composition
manslaughter
harmful
sequel
prohibit
culinary
fascination
strictly
ayatollah
lionel
incorporate
libertarian
alarmed
tomatoes
prolifer
glamorous
pivotal
pedestrian
levinson
bogey
lloyd
blockbuster
산불
dysf
zarrab
irregular
luggage
uefa
beethoven
mcauliffe
unfamiliar
03
ai
damp
hier
maz
pensions
riff
rocke
sina
tin
wished
##화
##oh
##rup
##rano
##난
##계
##보
##asaki
##elan
##otive
##stad
##stro
##stown
##utoglu
##urous
heather
saunders
fry
trous
unoff
##apor
clips
offended
manning
amanda
drill
contention
crist
disastr
stray
caring
interiors
pham
owning
demograph
##arged
emin
emble
108
swan
##roller
##ontane
calder
visas
payroll
smallest
morph
skid
distracted
davutoglu
succession
immense
philips
revived
cheering
nonp
breakup
improv
richest
balk
archives
digging
biased
honors
honoring
boyc
iranians
delegation
sleek
##nyder
roberto
ferro
montana
mortar
1959
planted
bolle
adopting
maintains
##지만
venus
agreeing
conclude
forgiveness
chambers
yielded
wrestler
intentional
concealed
satisfy
kosher
nurses
muscles
depressed
dusty
unconstitution
enterprises
exploit
nigerian
grimm
escalating
millennial
plumm
inclusive
fiduc
spurred
puzzle
excluded
unchanged
staircase
improperly
bullying
fatigue
미국
mohamed
buddhist
improbable
pianist
vigorously
homemade
pavilion
austerity
rockef
bored
dong
dame
diana
ez
ginger
lenn
nan
pes
rode
rica
tents
ya
£1
##nick
##norm
##egal
##iago
##hift
##esign
##anas
##alie
##alous
##icz
##icans
##omatic
##econom
##stra
stubb
##amic
beam
##irm
wasted
aldr
comics
trap
haul
##uma
prized
external
abnorm
plut
##aste
##ablo
sober
overhead
contacts
thanked
blessed
cozy
intox
joan
backstage
consists
##encer
##encia
undergo
courier
centre
warfare
seth
corrid
transfers
restoring
##ratives
harb
##phem
empathy
calvin
refund
##elski
specify
operatives
##ikh
critique
affects
enters
distract
nearest
landmarks
devised
figuring
135
certainty
denial
frontier
completing
practition
makeshift
celebrations
presentations
surprises
fairy
insurer
petra
cups
narrator
narratives
borne
existential
shoppers
cardinals
unsafe
achieving
flagrant
richardson
purchasing
ignor
alternate
mutations
landsl
sanctuary
cybers
prayers
satisfaction
padres
edwards
stylish
obtaining
velocity
horrific
brokerage
summary
buzzfeed
flaws
observing
discourage
recreation
undercut
fouls
intrigued
gibral
exhaust
sectors
henderson
observatory
outfits
confederate
scrambling
vertical
kyrie
midfielder
bahrain
catastroph
adequate
volleyball
barbecue
unlawful
lifelong
princess
lettuce
marquee
bould
bard
gild
ni
nasty
pc
pulte
sop
tat
tore
tian
tumbled
wart
waved
wiley
yoen
zur
해
##oi
##schild
##lock
##card
##worm
##oner
##enroe
##itored
##asm
##otted
##stick
stool
fores
##urred
rejo
##irk
shaping
##chem
##check
chal
##ulative
##usions
unified
abilities
leah
spontane
worcester
##antes
##iche
upshot
intensive
polished
disresp
monitored
interm
colony
cologne
decides
maya
mayer
whereas
thriller
artic
centen
defam
senegal
##atton
streamed
##erness
seasoned
greed
gregg
##ahi
restoration
extends
weddings
walgreens
infam
##vesant
blackhaw
glorious
115
formation
mcenroe
questionable
geff
hostility
credible
sunlight
##ynn
jackie
availability
oversize
hurts
hurdle
hussein
warrior
##ycles
obsess
melod
##marked
indicates
sprained
caroline
rosenberg
wilkes
eyeb
logistics
pupp
departing
freedoms
preferences
sheldon
unpaid
huang
supplied
suppliers
snowden
echoes
unemployed
anticipation
pouring
##antha
excellence
사라
obstacle
sliced
glee
grasp
lebanese
outcry
michelin
decrease
interpreter
pharmaceuticals
reinforce
insulting
##ophobic
dreamed
arnold
intervene
##patrick
aspirations
unleashed
contingent
nostalgia
sterling
summoned
incumbent
umbrella
surrendered
glimps
##hurst
huffington
canyon
stuyvesant
refsnyder
telecommunications
nephew
aravena
frankfurt
rockefeller
gibraltar
yoenis
cure
cite
dense
dixon
fand
gould
kre
lure
linger
ng
odom
tah
tipping
##aj
##nyc
##pable
##rix
##di
##sons
##len
##cos
##with
##kirts
infer
##isco
hail
proxim
exert
##occup
##ifics
##ectic
wors
##aport
compelled
##gee
brunch
outwe
doomed
grin
allied
upfront
canon
##izers
drastically
polo
caret
intercept
preserving
knit
els
elites
prefers
schem
underest
##atham
insults
##itsch
homegrown
belly
discred
handler
102
curtail
swir
swipe
##lete
stef
powerhouse
walton
testament
dealings
facial
morrison
classics
authorization
readily
easter
southeastern
posit
sidewalks
##borough
messenger
loser
gunmen
sexy
##ecky
holt
sung
mattered
bienn
dispos
destined
bottled
ethos
##bani
melting
smithson
clinched
bidders
outskirts
integrate
hangs
ramadan
rivalry
voluntary
distribute
surgical
pediatric
##었다
hacked
rabbit
withdrawn
pigs
barrage
satisfying
predicting
blaze
##정
alej
accuracy
accelerate
disturbed
##angelo
referees
##bourg
interactive
bribery
rutgers
unanimously
ozick
shallow
sampling
censors
potatoes
enlisted
proponents
schumer
freelance
eugene
fountain
predominantly
overshadowed
awesome
synagogue
disastrous
plummeted
stubborn
proximity
cerse
doses
hated
kers
kaz
lump
nude
nuts
omin
penc
ramb
vagu
yu
##nis
##giving
##zman
##50
##atri
##anu
stems
##igl
##igor
##olan
reich
hein
shack
##essa
trio
traced
haunted
##emia
##andi
wein
exile
exasper
abusive
##uder
##ellar
braw
broth
herrera
theirs
grabbing
perimeter
twil
cane
incap
marit
marian
crumbling
appell
colo
parole
indul
indef
indirect
reliance
backp
helmet
addict
downward
insiders
slugg
restroom
socially
deton
harness
specifics
protocol
pais
apiece
researching
moma
ledecky
##boro
##annon
err
energet
sunshine
battled
garment
analyzing
expressions
originated
branding
selective
malkin
237
premature
essays
countered
imagin
imagery
observe
semester
meldon
sexuality
academics
punishing
automotive
structured
tonys
samantha
installations
tighten
youthful
treasure
pedro
assumptions
##roads
homelessness
katie
grocer
ladder
reluctance
disruption
cocaine
dustin
gaal
neuros
mugabe
quantum
disagreement
##bourne
##uchin
granite
eagles
psychiatrist
golfer
unsuccessfully
recruitment
caucuses
reunion
lapses
flanagan
utterly
finnish
legitimacy
metaphor
protagonist
contaminated
nonwhite
jenkins
upheaval
unconstitutional
fiduciary
aldridge
outweigh
cersei
kershaw
meldonium
bm
baut
dizz
gast
hollow
hike
hoff
jos
lum
pom
paw
pors
rans
sul
tant
tink
tiff
vind
zip
여
##tures
##even
##ripts
##uano
##hua
##bled
##bull
##atient
inade
##arts
##alt
##reet
##lee
##amble
bean
isab
cheek
troup
unarmed
adher
grades
repeal
reservation
draped
peas
apprent
strat
tee
invoked
##lude
mund
##okov
remake
boasted
obam
winston
bask
legends
109
##prints
curiosity
stature
confid
steer
communal
singh
midwest
##otti
watches
violin
agrees
equation
##racted
merge
##ipper
occurs
threatens
forcefully
towards
##author
penetr
expectancy
advises
copenh
decidedly
schedules
screened
martial
bagg
prepares
iraqis
modeling
cardboard
bowman
widow
documentation
layup
sensibility
##guin
installing
trove
youths
broadcasting
belonging
prescriptions
proudly
amendments
storms
rebuke
anticipate
scorer
functioning
stripes
pavelski
riots
velvet
gravity
niche
outrageous
corden
quotes
rothschild
vaccine
traject
accelerated
distinguish
distinguished
resembles
barrels
overcrow
remedy
nabokov
jacobs
impulse
wreckage
exterior
reconsider
loophole
kessel
okinawa
reminiscent
stainless
triangle
abraham
mnuchin
sinai
unofficial
bollea
blackhawks
bautista
inadequ
copenhagen
dand
deng
dairy
fatt
fischer
gav
hs
hover
iphones
kend
kau
lec
lub
mouse
nud
pam
rains
rih
vie
vander
조
##eb
##rome
##vre
##mus
##안
##busters
##던
##onies
inex
toured
##ouched
##ecraft
##oting
ons
##ayette
##amination
beast
reorgan
sag
shab
frames
nebr
prag
notor
##arta
uneas
##osystem
spit
arlington
##ieu
##akov
newman
compact
liz
hermes
manila
##uca
grub
recyc
soaked
drunken
contends
cran
crus
##inda
commute
schultz
fined
undef
implicit
citywide
assure
##uese
governed
guilt
regim
terra
##ometric
openness
##liner
capuano
handy
104
103
subvers
cleans
##rique
simmer
##tenham
edu
##uckle
popovich
tavern
skirt
debating
costing
angu
explor
homicides
rulings
112
caes
##lamation
painkill
clearer
devote
cheers
floated
prosecute
magna
despair
trek
radically
measuring
athens
averaging
respondents
220
softbank
destro
destiny
suprem
acknowledges
premise
negotiators
recognizable
perfection
participant
semin
atlas
hersh
utley
##gae
penny
championed
360
rangel
##proof
reminds
collaborators
chemotherapy
chickens
proceeding
daniels
voluntarily
contestants
appropriately
achievements
accidental
clarke
stormed
tactical
bombers
intensely
bartender
omaha
pillar
hugely
vegetable
exploited
transmitted
imperial
cousins
petroleum
ambulances
gibson
prevailed
kahn
riverside
fernandez
##니다
deadliest
mascul
eclips
liverpool
technician
reproductive
throat
cottage
dvd
retaliation
balcony
haqq
incarceration
multimillion
ubiquitous
fraternity
forensic
wartime
zurich
maritime
painkillers
bore
ego
fog
gum
ivy
lun
lanc
laced
mats
nong
nina
ober
owe
pess
rushing
sights
sidelines
tina
vatic
##oying
##uates
##yad
##fig
##kar
##되
##inas
##atable
##itus
##icter
##idd
##urate
beacon
##imated
shelf
shiny
##chin
##thia
chir
chunk
proph
weed
seating
##alled
spun
spaw
##akable
clown
allig
pepp
crane
apples
appreh
scra
blade
strings
stricter
joking
elena
elvis
parr
desmond
mineral
defenses
##ctic
maver
slur
slipping
needle
newslet
handb
##brand
nationalism
sime
rapp
harmony
breached
provoked
##rolls
metlife
extensively
protects
##tedly
loop
##ewor
mids
angles
avant
southampton
##strong
candles
solved
##bek
supervision
cheat
float
urugu
auditor
burton
##mingham
##ported
##oyer
admire
prediction
horiz
biologist
dispatched
robots
birmingham
acknowledgment
discovering
preparations
queer
semia
bowie
cleanup
unsure
##flies
suitable
definitive
mobility
strategists
jumps
cookies
1950
allegation
shrink
golfers
cracking
explosions
##하고
podium
occupies
forgive
fraudulent
ecosystem
outdoors
rugged
whisper
scholarships
accommodations
dubai
rewarded
exceptionally
uncont
extrav
habitat
deposit
chatting
destructive
somali
kenny
reopen
wolves
genuinely
paradox
cynthia
assassination
immunity
residences
reconstruction
hutchinson
baffert
##smith
abolition
resilience
staggering
##court
fiorina
atrocities
gossip
graffiti
shapiro
microphone
geffen
biennale
energetic
uruguay
02
bounce
cans
eased
jill
lis
mubar
nai
oust
ports
tainted
xen
##oer
##rise
##lav
##just
##hu
##mi
##mines
##inished
##atical
##orruption
inacc
stunt
stabbed
##utable
##levant
##rogen
##robi
##uru
##olk
sao
aloud
chee
prud
butler
prow
suzan
seaw
##ocated
unic
unear
unsc
leaks
newf
bras
agu
twisted
drib
explet
likewise
contamination
crust
feinstein
accuse
commence
servers
poignant
thrilling
demar
##rowing
defiant
farrell
housew
confusing
leftist
visibility
visibly
edin
protested
judged
hourlong
systematic
taj
glow
lineback
believing
laf
pains
condensed
##boys
goldsmith
silhou
##apeut
encomp
armour
fairs
fairway
berger
predecess
damasc
racetr
unfinished
pretend
complaining
festivals
exhibited
councilman
toughest
##kinson
keyboard
cleaned
consultants
spirited
##laus
marriages
therapeut
ignoring
##onymous
promotes
surveyed
jordanian
anthrop
consistency
santiago
##glasses
exercises
besie
switching
altitude
listeners
abdel
blasted
tumors
rupt
adjusting
nicolas
##ulsion
miniature
neurolog
fuels
convenience
manipulated
pipes
unnamed
absorbed
coincidence
portuguese
plunge
slumped
confidentiality
rationale
irrelevant
revolt
psychiatric
workshops
intersection
drowned
resentment
tumultuous
persecution
burdens
robbery
anticorruption
cricket
desirable
appellate
sluggish
rihanna
nebraska
vatican
simeone
semiaut
predecessors
dances
dwar
fow
ful
fend
lil
nim
og
pestic
pablo
sig
sizes
ting
woven
상
##eats
##run
##uers
##dorf
##hell
##wind
thigh
##eration
##atized
##ente
stu
stub
stained
shipped
fruits
traction
unin
unauthor
aber
leuk
##ghi
claud
##geon
outer
amer
doe
soy
intol
drain
drank
peg
incoming
evoke
expired
disgu
disqual
screw
blair
strains
flies
finest
underdog
gugg
famed
foundations
emerson
emma
imaging
slashed
barric
swap
sworn
executions
steward
refined
infilt
greatly
patel
tapping
distressed
##enchant
performs
competent
184
183
##ype
antagon
condol
traveler
associations
##ospher
snip
turf
volumes
denies
burg
creature
combining
armored
suny
motives
austrian
fearful
stockholm
gayle
fairness
tottenham
diners
ambig
softee
destabil
koreans
crosses
booksh
paperwork
tribun
semi
precip
indications
corrected
fixtures
spiral
speedy
blasts
textiles
splend
manufactured
birdie
papa
tightening
aspiring
rallying
##할
composers
jailed
##olitical
supplier
ashley
dramas
exclusion
felons
punched
punching
##keepers
illustrates
oscars
ruin
diamondbacks
omitted
##신
ethnicity
laurent
accurately
pumped
exploitation
alerted
purely
ribs
obituaries
incorporated
discourse
ghostbusters
disagreements
gamble
resurgence
coleman
squeeze
prescribed
strawberry
caucus
constituents
fertil
nagasaki
ample
frightening
cafes
rizzo
pilgrim
frenzy
analytics
sansa
zimmerman
avenues
pyong
sodium
incompetent
tabloid
telegraph
raisers
sebastian
endowment
misdemeanor
##economic
defamation
inadequate
undefeated
mubarak
unauthorized
guggenheim
bian
dh
dul
dull
fug
ferv
giz
hipp
linking
mast
nit
nak
render
sinking
tires
tighter
yus
zid
##tic
##oid
##right
##ii
##hed
##fman
##여
##ᆸ니다
##까
##atement
##alon
##ilant
whipped
stove
##aying
beings
##irst
shine
withheld
fringe
hagel
prix
##ivities
##ivision
exuber
unim
leases
##unity
sparks
goff
liang
herb
grueling
reclaim
sofa
##aven
##achi
##ishly
disl
playful
carmakers
##ensen
flame
##anci
indif
indie
evenly
undiscl
minn
depot
teamed
defied
defiance
yours
basics
needing
disconn
farr
autopsy
signaling
subc
annoy
visc
visions
arrange
collateral
execute
refuses
standings
menus
operative
infused
entren
remainder
terrified
possessions
viewer
shortcom
solving
watermel
losers
mcgreg
fails
marched
emeritus
nationstar
richer
balanch
variation
luk
detailing
assistants
conversion
##worthy
proposition
contracted
engineered
##hao
renamed
apparel
apparatus
cooperating
installment
sleepy
tightened
choir
hawking
barbosa
mileage
vastly
tempo
mentality
ashamed
forecasts
oslo
##keeping
muscular
adjustments
jenny
tangled
lamar
feminine
stemming
subsequently
reassure
announcements
slick
mahm
rampant
rustic
hinted
drums
exempl
fractured
lectures
ravaged
evacuated
dudley
disorders
fascinated
baldwin
authenticity
tempted
beverly
adversaries
많
loosely
gauge
shepher
guerrilla
mtv
curriculum
bewild
catastrophic
porsche
pyongyang
undisclosed
shortcomings
mcgregor
balanchine
azer
bh
cuc
fost
fading
fiber
gn
gos
gee
kon
kara
lust
lash
pomp
piles
venge
##nac
##nier
##rate
##due
##dler
##hard
##frey
##zes
##트
##연
##bod
##데
theod
inad
whims
stellar
##add
##aders
##leys
##igible
shun
##terian
##chan
##esting
##ulator
trinity
##umble
##usky
##eared
butcher
exits
seaport
##unc
plaster
spine
##orton
clout
lib
alliances
canv
##lical
striker
cargo
carmaker
caramel
monk
interf
presby
presided
presiding
knocking
coats
joins
flows
schatz
lawful
impover
assessed
leadoff
deme
##hnikov
##lesinger
stillman
setup
barrett
bigot
corinth
##conn
annoying
harold
confessed
hardy
valencia
operas
behave
judging
hourly
sentiments
descended
rounded
sanford
wax
shoots
quarterbacks
mercy
superst
capitalize
closes
snacks
educators
audition
forceful
consume
armstrong
jealous
verb
commented
villain
predic
deliveries
scheduling
cubic
woody
wilder
280
weld
casually
contempt
automated
nonex
microceph
pacers
strengths
luxur
cracks
finishes
##yme
ghana
lyric
kiraly
1920
reversal
cockpit
evaluating
portrayal
suspicions
ruined
adventures
frost
compromised
therapist
bosses
tearing
hayes
guitarist
enhanced
implicated
inherent
plaintiff
deposition
fetus
dolph
patches
bryce
profoundly
leafs
sidney
smugglers
lecture
stacked
alpha
squeezed
algorithm
instrumental
stereotypes
reimag
quirky
vuitton
recounted
territorial
kidnapping
lundqvist
morocco
inexpensive
undermined
reddit
disproportionately
bachelor
machinery
injustice
vaguely
tiffany
nongovernment
edinburgh
damascus
presbyterian
04
bount
baz
cic
fade
gy
gore
haley
jas
litter
mice
nun
nah
nascar
pse
pitt
sg
tate
taped
tube
yo
만
세
최
##ns
##nard
##oys
##eh
##eys
##poen
##sapp
##lich
##hoff
##vals
##fts
##fits
##kered
##ᆯ리
##inement
##esity
##esley
##orph
anesth
##leen
itiner
##urp
reapp
fracking
##illor
chased
chilling
tran
trum
##umm
##opf
uneven
abbey
##ifier
spill
spear
spilled
spicy
##about
worris
##ellers
lips
brant
manic
amph
##ipher
expelled
marcel
##ffe
blaming
interrupt
##ensible
##ailable
rooney
fliers
preacher
parano
scha
schul
schlesinger
##group
poems
helen
throng
miners
obesity
gupta
keillor
terribly
setbacks
##asha
farc
fares
subpoen
reddam
turnbull
concede
profiling
raiders
breeding
confinement
refurb
standout
attacker
infring
greatness
particles
papp
misses
possess
trader
southwestern
sandusky
ranieri
freestyle
masses
coupled
capitalist
figur
funnel
circular
sweats
hobby
understandable
pushes
madonna
dana
dominic
doubling
constraints
contributors
renmin
fleury
logistical
tunis
microbes
chooses
550
oddly
collaborative
heroic
pinney
1947
delaying
fabrics
discriminatory
reinst
##olita
philippine
kirby
asserting
evaluated
paddle
lobbyists
grove
evolve
tailor
mourning
certification
embarrassment
disruptive
lesbians
trophies
nicely
tortured
zhou
preceded
patriarch
deceased
tubman
##people
##rilli
dictatorship
percuss
fouled
beneficial
vaccines
navigating
subscribe
rattled
weaknesses
##baij
helmets
polarizing
hodor
grinding
staple
mozart
simpler
jaime
chronicle
##echnology
concentrate
serbian
grieving
depicting
relegated
lamented
unsettling
kindergarten
gentrification
password
nonsense
영재
paralyzed
##continental
alejandro
baggage
eclipsed
pessim
newsletter
suzanne
dwarf
azerbaij
demeanor
corinthian
worrisome
subpoenas
awe
baking
cors
cuff
dipped
eh
hig
hilar
jup
kit
nolan
pipe
sic
sich
tile
vod
달
##say
##gies
##zhou
##런
##bu
##디
thirty
##arians
##arium
##alizing
##oux
##ouver
##ictory
##sten
##stead
stero
friction
nez
tract
prose
deer
##ocese
##ifiable
spencer
acoust
shea
sheen
gren
reply
peek
evade
expend
crest
scathing
monsters
interference
elm
desorm
undue
impunity
brooke
artillery
surging
camping
imam
discern
##ressed
statistical
simons
detection
##eney
swar
salman
valanci
propose
glitter
angered
111
##anek
michele
waver
limbo
grandson
granddaughter
##force
forefront
denis
balancing
criticisms
varieties
athe
scripted
berry
predictions
cops
laborers
unfit
goof
conductor
seldom
brazen
boyd
garde
fifty
wildfire
picnic
##rigo
wonders
dangerously
attendant
shuttered
encourages
fanning
mirr
pugh
ranged
jonas
sadly
sadness
yelling
mentioning
radiohead
cooler
pairing
tablet
lengths
symbols
##eeling
clayton
##oshi
franchises
outlaw
vulnerabilities
orchestrated
raymond
plotting
laure
sneak
unwanted
hypothes
selecting
fiercely
intellectuals
kalin
colombian
await
stamps
manipulation
gonzalo
intimacy
bustling
racked
kundla
sufficiently
trigg
paradise
buttons
reservoir
jacoby
interrogation
vogel
multicultural
rethink
adept
grievances
croatia
stronghold
sensitivity
nusra
disregard
outdated
trousers
demographics
landslide
disrespect
eyebrows
trajectory
uneasy
caesar
nairobi
besieged
leukemia
inadvert
pseud
jupiter
desormeaux
valanciunas
ail
binding
cess
cull
cows
croc
fuss
fret
hos
jared
kard
lago
mister
muted
peck
rbc
tere
vaugh
wives
xfund
##세
##nbc
##oise
##ran
##yd
##miller
##모
##전
##bee
##inate
##inav
##orama
anom
##isphere
##icious
##omon
##omas
##elin
stating
##utz
##urally
isher
##owers
shores
alger
chung
congreg
trot
tricks
##emon
##emate
pri
prod
wei
seguin
unequ
abusing
plots
spiel
spike
arctic
newport
newborn
enrique
rechn
percept
##iza
pep
cries
cramped
scal
##ovel
undergoing
remorse
boh
##athed
smashed
warr
defunct
##attled
maison
baseline
disco
banners
courtney
redacted
##riage
simone
filip
headache
deleted
calam
starb
steinem
patent
patter
johnston
glut
glance
glowing
##otta
networking
sandra
cavern
mcph
waits
freak
mural
snider
salesman
verrilli
celebrates
lowering
envoy
dany
strapped
dominating
embattled
robbed
cannab
tenor
physics
separat
sounding
characteristics
proposing
negotiation
captures
benz
275
cataly
casc
dismal
cleaner
masterpiece
consultancy
clinching
vacations
gods
ventura
monte
surfing
psycho
scandinav
ticketmaster
##monton
coffin
rowling
adoption
obliv
jails
dunham
##ships
anxieties
crashes
1921
pledges
prohibits
vigorous
osborne
bouley
lindsey
illustrate
stringent
cowboys
##실
disrupted
nicola
sacrific
fuj
sincer
manipulate
stirring
##falls
unfolding
giul
clergy
cuny
brookings
overdose
neglect
braun
sketches
replica
bureaucratic
tattoos
consolidate
sparkling
ripa
previews
hemisphere
oysters
sideline
olivier
surroundings
forbidden
scoop
pornography
##quisite
glossy
undergraduate
subdued
refrigerator
scherzer
alvarez
boehner
staunch
nassau
sperm
wendy
zombie
gilded
indefin
paisley
expletive
zidane
hagelin
impoverished
microcephaly
isherwood
rechnitz
aur
ci
dots
duffy
ek
fann
gour
gong
kw
kaw
katherine
lith
loot
lumin
mi
osw
pix
patern
raging
ripe
tut
vanc
viny
wink
wicked
wiped
yun
##produc
##dain
##iates
##ju
##yar
##mill
##made
##far
##fied
##간
##erland
##onc
##atan
##atown
##orient
##aser
##omrim
##ionage
##rose
bees
rex
reaff
reeling
shomrim
chill
neo
prer
weis
bystand
sev
seiz
##ocratic
uniqu
leopard
plumb
##astics
aram
arya
##omez
cloth
adrian
lied
brushed
brisk
##anson
perch
drying
expire
overfl
contag
contended
disbel
scrib
blows
##ordination
quar
monkeys
interfa
firsthand
robo
preoccup
##ulture
muk
wrench
remn
boast
artisan
endanger
download
##ilyn
seniors
##ashi
handwritten
autograph
redem
societies
filib
confined
metals
calf
protoc
directs
judy
humid
skipped
debuted
classrooms
broaden
homest
currencies
sitcom
finalists
portions
greenberg
geoff
merr
revital
superv
capitalists
snack
probable
burgl
##shots
balmain
armor
jeep
verify
accountant
initiated
scrub
scranton
dams
horowitz
mosul
individually
poorer
antiqu
packs
storefront
construct
##world
advocated
##health
perfume
captive
mccart
renzi
shutting
communicating
fleming
rosa
rosberg
textile
presumed
outset
frustrations
demonstrating
instruct
##writers
assemble
occurring
emphasizes
crucible
bonnie
##학
warmth
santos
duration
munoz
disappearing
ecst
abandoning
lyft
floods
clarify
rabbis
grossed
conscience
abdullah
groin
cowboy
diamonds
paved
anchored
medalist
phrases
escalated
toddler
dictator
observer
innocence
vineyards
resurrect
reverber
replicate
carnage
suppressed
javier
beverage
concussions
enabling
grammy
volatility
claude
wielding
mistrust
neatly
abducted
haggler
segments
choreographers
parasites
unfavorable
inspectors
bookstore
dazzling
saxoph
strasburg
prejudice
##franch
humiliation
impartial
hefty
petraeus
infamous
사람
smithsonian
groceries
newfound
linebacker
##ospheric
entrenched
kardash
interfaith
bp
erik
fah
ghani
hic
hick
ix
ike
kum
kun
lazy
lighter
mch
oj
pbs
rin
raz
rats
rift
ropes
tucker
vt
za
구
##aque
##nar
##nik
##eo
##lis
##lass
##cope
##fight
##며
##래
thes
##orth
##orio
##anmen
anita
##idas
##elon
##eters
stip
##ayer
##rov
sabr
shire
shrew
atp
##chs
trench
prostate
##ocious
##alla
unify
spelling
arson
clue
adul
manual
enlight
enlist
dob
reperc
cana
##ibo
partisans
##avers
whatsapp
coloss
teens
knot
copp
msnbc
joey
reliant
undo
impr
objection
guiding
demise
sym
retake
insc
slack
openings
redwood
annie
clintons
restrooms
harmed
metall
eden
edmonton
refrain
paypal
gott
roommate
untr
entit
##otto
aviv
easing
##plant
irwin
moons
footed
trainers
divides
capitalism
gradual
telev
##uitive
hamlet
palma
holidays
inflaters
verrett
christina
crowe
bites
commentators
inspection
grounder
fashionable
1963
conducts
hurry
influences
dogged
males
illusion
230
##opsies
packaged
packaging
derail
dermat
enforcing
commandos
machar
thomson
pollster
comedies
accompany
##azzo
displaying
respectful
reneg
transported
pinter
sustaining
literal
dishon
rescind
magnate
junk
ellison
dunk
ingram
persuading
darling
actresses
echoing
##ubbed
whitley
yellowstone
sophie
endorsements
fragr
scorp
pillow
hayden
sustainability
convened
resonate
deposits
harassed
reckoning
salvation
underscores
kaiser
privileged
telecom
axel
taxpayer
aerial
java
ligament
mariners
plaus
aggrav
technicians
ancestors
mushrooms
sidelined
serbia
bingham
territories
stylist
disgrace
fellowship
discontent
intricate
redevelop
antibi
uproar
infectious
homosexual
tiananmen
eduardo
destroying
hershey
luxurious
tranqu
sichuan
vodka
priests
starbucks
fannie
vancouver
protocols
repercuss
bam
bunk
cerv
dental
eur
fx
jian
kagan
lange
lured
lomb
oath
pon
si
sals
sri
tug
tiles
ubs
wad
wander
yar
로
##opp
##rest
##upp
##si
##gios
##zew
##문
##bilt
##처
##onts
##enos
##alc
##asive
##reau
##ecked
onion
onions
stard
##urances
ish
saus
sabb
shining
##chool
aless
prist
prada
notre
byrd
orbit
spared
compt
outward
aggreg
##ansson
##anski
gritty
perched
##ipes
upt
##ibur
peel
evokes
##quette
##berries
feig
feather
carmel
intervent
coordination
johan
flock
flung
opaque
##ovitz
elon
relation
poetic
showdown
counters
##rophe
brows
##iewicz
guild
deplet
suppose
regrets
surt
busiest
publicist
emigr
discrep
##elee
rested
collision
continuous
steered
##ribed
speculated
receiver
skies
skipping
recorder
approving
easiest
violently
almond
lauded
lauder
gunshots
fireworks
cultiv
processed
##ieces
injunction
50th
turin
burgers
commissioners
rebuffed
##heads
##burse
verse
##ync
##afa
##afi
hospitalized
rockwell
maduro
albania
advisors
cameroon
robb
ultr
restriction
afghans
mattress
driveway
cardinal
earns
advertised
bowls
unspec
sensors
freshly
checkpoint
namesake
splitting
virtu
##bbing
strengthening
collaborating
doctoral
1944
1948
paneled
unpleas
mandated
innovations
lyon
##업
jacqu
ashton
categor
sophom
horns
mosques
adventurous
attributes
lobbied
insistence
explanations
deception
enthusiasts
hulk
nodded
owes
negligence
patrols
graphics
fiddler
merchant
bentley
rajoy
cancellation
natalie
ottawa
assailant
kayak
cynical
procession
##pectives
fertility
creepy
stabilized
scrambled
다른
mushroom
frederick
hustle
ceremonies
##modo
eritrea
unintended
관
sifton
lighthouse
xinhua
extinction
bolstered
flamboy
ftse
inconven
backpack
mundane
vanderbilt
haqqani
tribunal
pappas
nezet
cannabis
vinyl
disbelief
interventions
unspecified
40s
ausch
bamb
bouncing
cud
catt
dion
dude
fences
gly
gomez
hunch
jorge
kron
kram
lingu
latham
mered
mama
naur
nerves
pence
rude
sut
zver
안
##je
##wered
##zie
##내
##루
##bound
##bands
##10
##asis
##ashnikov
##adena
forem
forty
##amins
shane
atkinson
##chew
##charged
alden
chop
trout
hahn
haunt
hague
weas
exor
suites
seals
##allo
unav
unbeat
orc
##abs
##udan
arise
arrog
brack
agitated
##oused
rept
upbeat
timeline
drift
dryer
peaked
marilyn
contents
##quin
noir
##licity
scant
feast
blum
##inton
##integr
monaster
intermedi
intercontinental
flashing
preet
pregame
schwar
officiate
backhand
imperson
addicted
underwater
undergone
remot
boyle
endure
depicts
insect
publicized
##atted
##linger
correl
courtes
musudan
handmade
autumn
##rium
socio
nightly
swung
stew
##elsh
engulf
hopeless
systemic
healthier
afflic
deboer
##retched
broadwell
kindness
factions
nearing
labs
generals
##apper
vicious
risked
geh
buyout
limestone
injection
deepest
quicker
maggie
familia
turtles
compliment
combinations
richards
holly
motel
verbal
texting
chicks
multib
scramble
citrus
##ronts
mosaic
malt
malf
trusts
paula
bordeaux
totaling
amazed
modeled
benign
semic
recipients
pageant
checkpoints
prominently
virtue
365
conflicting
sadr
dismissing
emphatically
traffickers
methane
kobe
chopped
minimize
airbus
jerome
belongings
dunn
fantas
pulls
batteries
taller
ashes
##rompt
procedural
assertions
conspic
masks
osorio
dimensions
portraying
experimenting
deported
catalan
##시아
naive
kalashnikov
malloy
gifted
slices
depths
plummet
folding
bogut
pioneering
dickinson
##otype
hesit
hesitate
jarring
kaminsky
shields
fossils
dotted
philanthropy
prestige
digitally
stimulate
plaque
aggression
eclectic
submarines
jihadists
kyrgios
disgusting
##원
wandering
olivia
swallow
parishion
surpassed
falsely
dividends
snapshot
seaside
stigma
nonfiction
endeavor
contraception
videotaped
satirical
##stroke
bmw
troupe
lafayette
dhaka
gizmodo
sweatsh
renminbi
azerbaijan
comptroller
auschwitz
nauru
zverev
foremost
aster
bie
bisc
benson
cain
ding
egreg
fists
fizz
fidelity
foyer
fnac
hott
hano
loney
lumber
pag
pell
roper
tenn
vid
zw
zed
제
##eur
##rings
##laz
##vian
##mary
##mings
##gments
##kia
##kinder
##bles
##바
##든
ingen
angr
tomb
##omi
##sted
stumbling
##iga
saul
##imental
shred
shawn
##sex
##think
fran
ches
##ldis
haute
pratt
notwith
bypass
##alling
unjust
univision
##osaur
##orting
clan
##ourse
##herent
adhere
libor
herd
amended
repet
meek
drastic
peat
##awei
crav
crashing
##quest
scars
feathers
blatt
blister
stride
carlo
myers
rochester
invitations
ops
prekinder
schro
relating
undoub
##centric
boasts
assurances
guang
endurance
retreated
##azquez
basin
veep
goodman
discarded
discreet
baron
greiss
capability
turnover
eschew
provoke
postgame
salads
passages
standpoint
looms
develops
debbie
avid
128
sunderland
capp
socialists
generates
gunshot
mcgr
covert
sexist
fuller
successive
identifies
squar
misled
misery
deepened
breakout
sunglasses
rebounded
legislator
hallibur
##이라
hofer
satire
roadside
mexicans
1961
challenger
challengers
strait
disappro
martins
martyr
packing
packard
restrained
restraint
contributor
melbourne
##haus
escaping
escorted
pathways
alexis
darker
diversify
sensible
protesting
logical
texted
qualifications
cooperative
cookie
integral
jerseys
recommends
duch
##teen
ignited
bolton
pinpoint
cookingcare
arresting
behavioral
magnific
sarand
galvan
antonin
heller
assessing
valuations
rigid
populism
boundary
creamy
nadler
##들의
punches
tyco
calculations
culpr
spinoff
dilem
crooked
brewing
coca
ultra
morales
sabmiller
##ulsive
philosophical
tolerate
ricans
resonated
manipulating
imperfect
altering
watkins
discouraged
dentist
farewell
chronicled
merchants
implied
deflected
sponsorship
lecturer
decreased
redskins
dellin
unreliable
assailants
windsor
aroldis
prosperous
##aiso
blurred
botan
disgust
demolished
gratitude
cursed
stagnant
ornate
valentino
embryos
dwindling
anatomy
wasserman
jakarta
inserted
automobile
peanut
cedar
pyram
inauguration
goddard
arbitrary
caretaker
ominous
pencil
baskets
racetrack
intoler
watermelon
oswald
paterno
repercussions
unavailable
hanoi
notwithstanding
prekindergarten
halliburton
ailing
dare
fad
faint
hess
houd
jog
jelly
ket
lasts
morm
pund
pave
sz
sinc
sacks
tann
tipped
vass
vinc
wah
yong
yates
zimb
스
##회
##eer
##rier
##racts
##sa
##iative
##iencies
##lift
##jay
##yombo
##hub
##mail
##kos
##무
##onso
##anus
inp
##icate
##reu
##idav
##stood
##stapp
stade
stella
##ados
shand
##chio
alain
fres
tril
##umen
##umbs
notices
prostit
projection
##arton
unreg
unease
unidentified
abor
abel
##abwe
arbor
##antan
adidas
amman
doyle
recess
perennial
allan
twists
drilling
incarn
##ignment
##ava
overcoming
polite
marx
marrow
scouts
carly
knives
coven
fluct
opec
parm
indign
maynard
undec
consisted
additions
thrust
betty
worldview
studded
supplements
##ixed
wellness
idios
charts
##eneg
swo
sword
emper
internally
creations
passports
protracted
##iko
organisms
affidav
glac
##raph
davies
1800s
boarded
##appings
glover
finalist
reasoning
suspense
sonia
squir
journeys
prosecuting
marching
activated
denouncing
burberry
storied
circulating
improves
palette
cambod
conservancy
garn
verstapp
austen
reboot
stockp
admiration
cites
pleading
laboratories
biyombo
stopp
stoked
tencent
tomas
mixing
precarious
mccoll
regulars
gatherings
bombard
##iscrimin
shuttle
wealthiest
renters
parlor
rainy
marriott
savory
demonstrates
okp
pointedly
bonino
furnish
dragging
fabulous
huawei
saratog
dedication
skyline
mandarin
sync
royalty
jointly
stressful
prohibition
rebuilt
tyson
adjustment
blazer
##한다
shells
hampered
hypoc
laurie
porzing
rudin
pronounce
inherit
vetting
affirmed
rampage
aquino
abbas
steinbr
overdraft
overdoses
impressionist
infantino
braai
beneficiary
prevailing
sparked
sibling
proteins
helmand
ottoman
fitzpatrick
intimidating
commodities
synthetic
nepalese
overcame
functional
katzenberg
monumental
employing
nails
chinatown
tyrion
narcotics
energized
density
scrutinized
shrugged
tusk
withholding
inflicted
fiancee
aversion
hebrew
proliferation
boycott
foresee
glimpses
censorship
prowess
commencement
condolences
dolphins
unpleasant
undoubtedly
zimbabwe
verstappen
saratoga
porzingis
binge
cou
cue
fod
fult
fusion
hil
hone
hond
jed
kow
lama
lager
mung
nast
nood
nitr
pum
pup
puff
penchant
sier
tors
ulys
vow
vign
wain
wry
wounding
welsh
yacht
£2
경
발
크
##pas
##psey
##ui
##yip
##yaf
##cus
##zel
##kley
##bec
##bons
##ᅣᆼ
thy
##edes
##oral
##isand
##asion
##ido
wholly
##eto
##otism
stocked
stroll
stym
forge
##rob
##igated
sailed
shen
shir
shelling
alto
##illusion
chast
chern
chatter
charters
neff
##ulu
##andered
##eard
byr
unacc
##osian
abide
leapt
leagu
plung
spor
spate
spite
spouse
arist
sheikh
ador
bred
##ucc
recep
upcoming
uphill
intrigue
##izations
##ibal
##soever
##qui
appal
noisy
disillusion
scent
scour
scold
scully
whatsoever
##inted
monop
monolog
monaco
cola
decomp
decker
accuses
preschool
cob
##eping
##mani
flatt
parag
schon
schwe
##anca
indisp
showtime
workouts
addicts
rematch
boon
sayyaf
guantan
dempsey
runoff
weeklong
##week
##weiser
regained
meme
idi
transgress
##ysc
concession
rests
harri
esot
headaches
airs
metabol
starlin
hardc
valpar
infants
marketed
increment
shark
halep
humane
pastry
skype
summa
readings
techno
123
118
113
##ographing
antig
descriptions
equals
mcken
coachella
situated
espionage
devotion
divest
quicken
erased
100th
burk
combines
##workers
castell
favoring
archb
rosemary
##burger
madd
digest
franco
softly
budweiser
domino
embro
emblaz
suffers
blueprint
recognizes
recipient
torch
##iesta
constitute
machado
sensed
profitability
jumper
tuned
tunes
pacs
cornerstone
1952
1953
ridden
taboo
pinned
1949
1940
nickel
eggplant
methodist
##공
##habi
viafore
assessments
gerard
##blance
cabinets
eagerly
gorillas
neckl
slammed
아시아
76ers
tayyip
deficits
uniformed
subscriptions
accommodation
striped
relievers
hugged
correspondence
riyad
fordham
haywood
feminism
etc
fishermen
kissinger
flourish
bumps
dwight
ankara
exemption
vitamins
backlog
cautiously
evacuation
invasive
supervisors
restrictive
excluding
consolidation
kathleen
##umbered
marrying
lamps
mozilo
undertaking
congratulations
jihadist
stabilize
certificates
catastrophe
alexandra
pandora
noncomp
eritre
facilitate
unstable
softer
unmist
namely
crippling
stranded
estranged
incubator
charismatic
prevalent
abnormal
soprano
centenario
stefan
auditorium
extravag
inaccurate
fowler
stuart
yusuf
uniquely
pinterest
plausible
parishioners
input
idiosync
okposo
fodder
ulysses
valparaiso
mckenzie
emblazoned
aura
bury
fitted
feld
ging
hector
jal
kens
morn
mired
ols
pont
pelle
panton
rory
sock
tuc
vil
vett
waking
wipe
zak
교
선
위
연
캐
##oque
##iability
##las
##jiang
##ycl
##cience
##vie
##moon
##fold
##zyn
##kiewicz
##명
##차
##anza
inh
ing
##arella
##isic
stanton
##aye
##adden
##acare
alc
frantic
chanted
conund
tray
##emoth
##igham
prair
##oof
unap
unner
unesco
spac
##abad
##uda
##antically
claw
claire
clusters
brac
brend
bratton
outings
ammon
dole
dodd
gris
draper
pee
##sover
disorient
scall
scans
blat
bless
bland
carmen
monks
interl
coloring
acclaimed
##ensibly
rox
roaring
##angled
prewar
schw
##aternal
unden
attracts
writ
boiled
##tingu
perspectives
fared
107
##aho
charred
raided
harrowing
accordingly
planner
confession
creed
continuation
continuously
steals
infin
behemoth
halp
judgments
kills
midday
gloria
122
##balls
violates
pressured
181
organizational
lows
geop
geographic
merged
cheated
floyd
deepening
sniff
futur
secretive
combative
palom
palpable
epit
garrett
tripled
awak
awaken
##after
hoop
benefiting
considerations
purse
fills
malia
malik
marty
separating
260
counterfe
fortress
derived
captivity
melted
melanch
melida
documenting
examines
##flower
fleeting
novelty
speedway
andrews
wilts
afforded
morton
quieter
804
thermal
olson
1954
analog
granting
promoter
proceeded
houth
requesting
compensated
pedig
accusation
counselor
sculptor
lockhart
huddled
clientele
elevate
eurovision
overlap
##ukerman
populous
honesty
prohibiting
calculate
sugarman
hornets
extraordinarily
surgeons
lynn
decorative
hype
hypoth
correspondents
atmospheric
deployment
vegetarian
reedie
maximize
tentative
somber
watts
giov
warehouses
hunters
epidem
accomplishment
relocate
kuwa
disparity
condominiums
rouhani
restricting
##vasive
ottol
cruelty
prescribing
autonomy
gagosian
airplanes
glamour
mercury
betrayal
stereotype
immersion
immersive
upright
chanting
oyster
mistakenly
wandered
crammed
hewlett
shepard
jeopardy
bristol
unreason
breeze
dividend
ostensibly
abundance
semitism
gwynn
versatile
biotechnology
envelope
inhabitants
apocalypse
rebellion
handcuffed
turbulent
irregularities
eminent
intoxicated
practitioners
ransom
apprentice
obamacare
lisbon
theodore
aurora
reaffir
mchale
stardom
sophomore
multibillion
egregious
aborig
mccollum
guantanamo
esoteric
archbishop
vettel
conundrum
unapolog
aa
bj
bode
cin
dax
eats
hank
kov
kline
kins
lance
matur
mecca
nino
ping
pia
pens
rer
rag
tk
vamp
vare
wen
yaz
zay
£3
문
의
치
특
##nan
##tions
##rays
##lou
##lain
##lif
##yers
##cence
##md
##gon
##gill
##girl
##ᅥᆯ
##bine
thump
##onaut
##atism
##enfranch
inel
##arios
anbar
##alan
##alysis
tos
##idated
##elet
##etcher
stomp
forfe
##acons
##imori
shaky
fronts
chili
conor
congest
coney
haunting
##agin
##uming
dee
deeds
extingu
suu
hasid
##allister
unru
abst
spies
##ustered
##ieg
##endiary
lia
brash
amusing
perisc
mega
##izio
peac
peps
incendiary
##ryn
cres
crad
disar
disenfranch
scaled
scales
##pted
blower
##actic
decree
##ampol
coex
coax
myr
roared
flare
flashed
1900
##ilda
dese
evenings
##center
impending
wrig
underw
##isson
minivan
centric
smash
genetics
warmer
regal
winn
##ussen
##rosion
banana
##xtap
idaho
##pring
reductions
turnovers
concoc
universally
carey
header
swelling
swelled
confessions
airy
airdrop
##enga
collects
stared
esther
locate
locks
behold
classmate
untitled
doctr
ballets
avatar
ideals
irony
irrespons
pots
anto
footst
wallet
administrations
leveled
murky
instituted
##balance
viruses
juxtap
miserable
titans
erin
##ecker
epstein
40th
conservatism
verified
awake
##burst
syrup
inspir
personalized
averages
hallways
admits
penis
alban
purity
biases
riskier
22nd
beatles
nominate
modernist
acquaint
louvre
telesc
##heuser
deriv
ethic
materialized
widening
##iscip
indicator
ferries
assaulting
ensuing
comedic
screenings
strengthened
rubin
cooled
1951
environmentalists
hunts
boliv
falih
promotions
spectator
danielle
lucie
skinny
kelley
concludes
exercising
elliman
##jao
synch
650
adamant
outraged
clarence
tapes
blogger
altar
coordinating
assemblyman
georgian
praying
lobbyist
illustration
footh
premieres
mourners
tangible
bitterness
transcend
ayotte
bucket
hinds
condemning
warranted
stalemate
gigantic
gestures
coincided
airstrike
bundle
bundchen
assignments
owens
aziz
disparities
odor
contradictory
siegel
hendrix
ovation
imprisonment
ruthless
resembled
stimulus
mantra
fortunately
ferrari
eisenh
stamford
emoj
livest
maneuvering
gulb
garnered
punctuated
gowns
juba
proponent
unbound
deteriorating
embodied
surrogates
medioc
extradition
voyage
adorned
nerd
slogans
grizzlies
##represented
ernest
mammals
hierarchy
regimen
mavericks
semiautomatic
nongovernmental
warrants
patterned
fujimori
wrenching
filibuster
salsa
##zewski
courtesy
hottest
sincere
undecided
steinbrenner
fulton
hondur
appalach
wiltshire
varejao
periscope
telescope
boll
berman
ephem
fanc
jagu
kip
kang
lani
mair
ned
nish
norton
pity
pamp
punta
rw
sipping
ti
tuf
vom
vance
vowing
배
불
추
##nuts
##tman
##rous
##fronts
##즈
##anse
##inges
inhib
anheuser
##aline
##itational
##oufl
##isively
##enton
##stock
stabbing
##adays
##adder
##uren
rewr
##irner
##imer
shocks
##chy
##chal
framing
chong
##agging
##ivoc
notewor
##opy
deft
seism
unans
unex
unpro
##abi
##osta
afar
compel
gob
liable
willie
recapt
upended
soothing
timet
drafts
expires
parted
##acey
overpower
##mph
##qua
disasters
##ptuous
playgrounds
striving
caric
decrimin
flared
##angle
elle
elastic
parc
schu
finch
mayors
nowadays
muff
desired
desires
impassion
imprompt
##issible
mina
centrist
guides
deplo
insane
startled
euph
mae
slashing
slugging
bash
belle
##rosse
realization
raft
planners
##rology
oppression
continuity
payouts
letang
infur
humbert
skating
skirts
entour
baller
ballad
avoc
ideally
explode
privat
administered
sexism
greenpoint
geography
misch
misman
excav
excurs
131
customary
educate
erratic
145
denomin
township
camoufl
balances
tread
sunscreen
batted
awl
damn
digits
horv
linen
degener
dominates
cube
vanessa
doubted
reflective
doorman
rodgers
exhibits
sourced
guarded
diary
layout
birthplace
speeds
waiters
bidder
comedians
towels
virtues
batman
dismissive
ratner
ratmans
planting
touchdown
mutko
shelby
priorit
borrower
swimmer
swimmers
eccentric
rarity
christianity
translates
carpets
blogs
scarf
outpouring
dynasty
tarn
pharmac
boomers
guitars
deportations
daddy
rewarding
1916
gateway
sabot
shadowy
rossi
fetish
somalia
deserted
rendering
ribbon
racket
bursts
smoothly
upgrades
salvador
tagged
fracture
puzzled
lagares
discounted
grapple
muddy
nicknamed
unveiling
philanthropist
assailed
hooked
temptation
adversity
rye
betrayed
dalai
##echnic
ackley
archaeological
mistress
reimburse
gurley
curtains
sloppy
thwarted
ushered
sturdy
relegation
ceremonial
gothic
vasile
semitic
gowanus
drifted
supercomp
molecular
biblical
##charge
meticulously
revisit
perilous
chevron
tacit
wizard
disadvantage
embroidered
pudding
amassed
autobiography
corridor
boulder
schemes
pragmatic
grubman
stubhub
pilgrimage
indifference
nonexistent
sgt
percussion
hilarious
hypothesis
spielberg
catalyst
oblivious
aramco
remnants
kardashian
thesis
depleted
zwirner
angrily
squarely
trilogy
sierra
neffenger
byrne
feldman
prairie
underwent
noteworthy
unanswered
impassioned
impromptu
ratmansky
aided
boud
cf
cir
cakes
dared
e3
ica
kik
lanka
nant
ses
sized
searing
varg
witt
xav
레이
방
생
화
##pieces
##raged
##dine
##iol
##jam
##watch
##fu
##zmann
##역
##beth
thur
##iners
##ono
##atra
##anity
##anhao
ans
##reich
##enting
##etes
##staking
##leau
##olia
beams
alerts
frie
chow
chib
##emaker
notions
weibo
depp
unatt
##ecting
plural
spans
spoon
##ackers
newton
adele
adren
enraged
grilling
##ubal
pervasive
repurp
uptown
drizz
##kson
##aways
marital
maranhao
##sole
nokia
disdain
playroom
strad
quitting
monter
monkey
knots
##ailing
myri
roar
seren
flushing
poked
##mermann
genres
sykes
downside
defra
defines
insured
instability
schoolchildren
winery
knowles
slides
slipp
##ometers
homework
persons
persky
autism
##river
restart
societ
careg
confisc
earrings
loosen
deli
delg
majestic
edible
souls
##resist
##atural
##gyn
interviewing
##ennan
sentimental
##ruit
##enched
114
117
irresist
lai
succumb
painstaking
globo
hillside
merrick
juicy
legalization
162
mustard
audacious
##lynn
panicked
inflated
garments
garrison
##oya
multif
scraw
hof
hopped
plead
responds
accessory
heavier
linares
purges
mosby
embell
embarked
environments
antiques
suffolk
louder
advocating
ethan
enforced
memorabil
drafting
diallo
spritz
wealthier
consultation
domain
rarefied
romans
##에는
adjo
1955
strikeout
kidney
reminding
shroud
sympos
collaborator
disneyland
nonprofits
retirees
romanian
forgiven
sarac
##hole
bleak
bellen
thanksgiving
supplying
syndrome
sticky
landscapes
felix
termination
scarce
foreclosure
circumstance
dimension
fragments
traumatized
experimentation
devastation
brewery
pillars
hugs
elders
pumps
lapl
pronoun
geared
relaxing
corpses
cinematic
escalation
patriotic
fingerprint
collapsing
faulty
harambe
honeymoon
delightful
amusement
diagnosed
지난
drummer
incorporating
bluntly
revered
marvelous
lawns
rattles
dartmouth
skeleton
pasadena
parallels
reinforced
scraps
catering
theoretical
dupont
contemplate
seamless
unseen
russo
cavs
lungs
retrospect
ackman
mimic
outposts
commemorate
barbera
marginalized
nordstrom
reshape
sleeves
cafeter
pilgrims
unintention
lexington
ordinance
meadows
accumulated
meticulous
manuscript
erected
grimmie
overcrowded
hsbc
onsl
recycled
vengeance
bigotry
bounty
brantley
ehren
mirrored
inadvertently
bohmermann
cervantes
socioeconomic
bieber
magnificent
covenant
affidavit
harriet
metabolism
gingrich
hypothetical
aboriginal
gulbis
frieze
memorabilia
aung
boun
bish
bison
cind
cork
dix
dune
fift
hp
hens
hires
jen
kol
lug
lank
mum
mong
nests
pend
pitted
rost
rale
sv
sous
sult
tutor
vag
wob
xu
xia
##ᆨ을
##ea
##eons
##ronym
##iens
##jas
##joy
##cile
##horn
##vold
##wag
##zos
##zai
##16
##eros
##atech
ana
##itution
##itaries
##ouin
##oulos
##ioni
##iong
##elike
whales
##oton
stab
##igs
bef
rejects
rebrand
hears
asdr
##este
chester
##cepts
##embourg
pric
##usk
##ivol
##ivial
exquisite
abball
orb
platter
spi
##outing
goat
mankiewicz
outsc
amc
##uba
meats
mari
##sohn
scroll
blizz
bladder
strahan
quaint
carc
monarch
deco
tepid
##ensional
timeout
rohing
serene
##ittal
elb
indec
reliably
##grass
attach
showers
donnell
underperform
asserts
assurance
smarter
warpl
##weet
regards
registry
retains
retaining
instincts
##ioff
teresa
slender
##ollers
politely
persever
capita
takeout
norwich
statues
sociology
raonic
plank
edison
edwin
continually
happier
estef
passers
roommates
loch
##ieto
judith
pastries
morality
interviewer
balloons
prevents
sandberg
wentz
stepan
shotgun
##wheeling
lax
roundabout
micha
clearance
porto
##echkin
importantly
hilltop
##ospace
miscon
132
137
probability
saturdays
simplicity
hearst
salesforce
combating
improvised
armory
distances
africans
benefact
heartbreaking
liner
liners
pretax
goose
boxers
pulisic
straub
females
characteristic
bondholders
restructure
fortified
contributes
##heit
##castle
contracting
casts
memorand
dismayed
unsur
constitutes
인
rollins
encouragement
safeguard
wilmer
##ascal
tuna
cookbook
bathing
radioactive
italians
1958
shrunk
registering
macc
malev
370
tablets
luxembourg
42nd
erica
dragons
labeling
sorrow
huddle
shipments
ingrid
distinctly
mentions
hacker
jacques
elemental
flavored
canadians
darren
reconcile
orchestras
noticeable
conceal
concepts
wiret
carrie
tangle
dubious
leonardo
tuxed
velas
하지만
blankets
resemblance
exposing
fastballs
advertisement
arcone
reassuring
vinegar
provisional
absorbing
nuanced
owen
relocation
kucher
infantry
vitamin
minimalist
##unctional
exclude
incomplete
philanthropic
ovechkin
kristen
aerospace
intimidation
bunker
mantle
ethiopian
confeder
stephens
eisen
bucc
vuuren
adequately
sleeve
choreographed
undermining
johansson
oncology
mishand
pantry
sheary
yorkshire
leahy
spontaneous
hoffman
kaufman
pamela
simmering
spawned
therapeutic
interfere
predicament
acoustic
indefinitely
redemption
canaan
colossal
metallic
dishonest
pristine
kramer
culprit
intolerance
stoppage
pummel
torso
plunging
schoninger
incremental
unmistakable
idiosyncratic
mornings
spacecraft
halpern
palomares
coexist
decriminal
deploying
awlaki
icahn
레이저
delgado
irresistible
symposium
onslaught
raleigh
asdrubal
abballa
bau
bind
beng
bitters
bauer
cs
cah
cabb
dost
dale
eco
erupt
fen
hath
hull
kemp
mates
mumb
mauer
pg
pug
paced
panda
ritz
sasse
tad
tara
vows
wta
yas
yam
yann
도
들
무
야
##rand
##iard
##luster
##vic
##vance
##qing
##wing
##mount
##fires
##zberger
##kova
##bra
##ᆸ을
##onium
##aton
##atem
##enne
##enburg
##orie
##itan
toul
andres
##idious
##otts
onscreen
forc
##acio
##roft
##urable
beec
bearded
ree
isner
ascent
fries
chilly
##ulo
trunk
##agut
printer
suned
sein
##allah
unused
unthink
leo
lei
spouses
##uds
arora
newcastle
yearly
##ongo
##ells
brides
herz
enig
outburst
gracious
alluring
upbr
intros
twain
timed
pea
peele
evapor
mara
marred
dislike
scoot
strife
strides
monuments
coke
useless
roe
commuters
flush
parody
mayhem
buenos
##century
phant
boone
highland
##uala
##atty
##ometer
farage
adverse
##eley
respective
detract
harbour
swat
swapped
providence
provoking
builder
crem
paych
postal
posture
specter
estates
receptive
loath
midcentury
taipe
relevance
possessed
##plate
129
candle
fielding
gunship
walled
fireplaces
espada
portal
sonny
##annah
revisions
injuring
closets
saturated
circled
##she
balked
distaste
eleven
periodically
boos
motif
furor
sweater
multis
scripts
##autions
##일
unlock
madness
unfl
ordained
##cliffe
embargo
robbie
crossroads
lackluster
brownback
teles
precautions
lifes
lifeline
dismay
crimea
dias
fixes
ensued
##vani
vacancy
farmhouse
logged
comfortably
coastline
sadd
manufacture
notebook
familiarity
silverman
collaborations
wonderfully
1942
##zza
resisting
##enkamp
sanctioned
henri
narrowed
jammed
missteps
##agnan
lynd
1939
1938
##warts
57th
##hari
##린
assertive
kurdistan
terminate
##blatt
bloggers
##했
railing
withdrawing
coordinates
loyalists
taiwanese
lindsay
jurgen
butterflies
philosopher
같
endorsing
bitterly
pumping
exploiting
curatorial
kissing
ricci
heyday
venezuel
repaired
organs
flourished
elegance
quoting
leveraged
rendition
dyson
hinton
steadfast
troublesome
puzzling
##skiy
hazards
unheard
evolutionary
mammal
mysteries
cheerful
buddha
duckpin
accordance
expedition
armenians
resembling
자신
deadlock
mannatech
gulati
allergan
abduction
mathematics
chunks
retrieve
unrestr
mitigate
weakening
undergraduates
enclave
wintour
flick
meltdown
amplified
pecul
proprietary
nigel
worsened
discredit
errone
subversive
anguish
##까지
farragut
visceral
itinerary
pessimistic
cavernous
contagious
coppola
televisions
binghamton
monastery
remotely
hesitant
mcgrath
sarandos
dilemma
emperor
cambodia
furnishings
unruly
footsteps
seismic
timetable
mismanagement
vargas
rohingya
unsurpr
kucherov
sunedison
upbringing
taipei
biod
baza
dc
dashed
dipping
einstein
garg
jag
jod
kiev
keller
lops
lashed
maw
mesh
nile
pard
pounding
somm
tame
ves
waged
wading
동
물
유
피
포
##aution
##try
##poon
##uv
##lit
##casts
##hetti
##mussen
##fred
##조
##위
##방
##두
##onist
##aren
##aret
##alis
##reb
##ilitary
whirl
##otine
onboard
stony
stacey
##uto
##amine
bezos
hepat
saga
##ithe
wasting
alp
conve
##andra
##agher
prank
##tsy
##kei
exeter
unifying
##ifiers
acrob
acronym
arra
clot
clap
clog
compr
adler
brom
britt
2030
doom
grac
recoup
reclaimed
perelman
allison
repell
reperto
meager
canine
reset
peaks
partially
##avan
overth
polio
##isha
criss
##quan
##lico
##lick
scorn
bliss
playlist
intertw
interconn
decisively
knack
coin
invention
##angu
paragu
##anco
everest
##oldt
phyl
longev
assorted
guatem
demons
depictions
##loading
defy
defying
defective
slug
vega
##sonaro
baroque
##linghetti
corpse
cured
redirect
bothers
##ressive
restless
statutes
socks
proves
aires
visually
starboard
refr
servant
salty
passions
valerie
valvani
propel
behead
jude
midd
mori
freezing
freewheeling
larsen
121
stepfather
182
antip
equilar
electing
mcgee
immort
filmmaking
cultivated
wording
sonoma
geometric
reviving
superman
superfic
squares
excuses
encro
eras
erase
149
emerges
hamonic
palo
##umbles
favorably
expresses
villar
villas
parisian
forwards
understandably
positioning
entirety
horrors
24th
vanqu
robles
wilde
screamed
##rigan
festivities
##hea
captivated
imaginary
observation
melody
precaution
normand
mistura
corrective
progressed
ferocious
ferlinghetti
farmland
penalized
comforting
screenwriter
flowed
notebooks
analogy
dissidents
ramon
transferring
collaborate
principals
jacksonville
bolsonaro
scenarios
troop
barbaro
colonies
##breaker
assumes
advancement
bulbs
buffet
lymph
canceling
laser
railway
intensifying
pigeons
verdicts
barracks
dependence
foil
diligence
whisp
bartolo
omn
carrots
upsetting
detectors
sneaker
compromises
container
containers
exceeding
robertson
stemmed
cheroke
sinister
oriental
stalking
crafted
vetted
gleaming
patchwork
cunha
dyke
loretta
validity
rhythms
efficiently
annex
leafy
neglected
kyi
reopening
boroughs
fatalities
nikkei
odys
alienated
capsule
rituals
fulfilling
expedited
prescribe
hurricanes
shaun
stamkos
reefs
empowered
otto
strangely
moistur
##비스
overrun
griezmann
exhilar
hirst
hewitt
persistence
moroccan
resilient
inexplic
받
hormone
dickey
##hydr
##human
mujuru
stitcher
icons
vaulted
versatility
cusack
reinvigor
gymnastics
eroded
lichten
carolyn
lerner
nonpartisan
ignorance
cybersecurity
holtby
prophet
alligator
unearth
neurological
exuberant
##build
triggered
mccartney
ikea
imprint
tranquil
robbins
pundits
##zynski
geopolitical
kuwait
ineligible
mediocre
myriad
cafeteria
cindy
fifteen
blizzard
memorandum
unthinkable
paychecks
lopsided
paraguay
longevity
aus
bb
bist
bake
bunt
bucks
cep
elic
faux
flynn
jiang
kand
kod
kash
kaf
lest
lons
lurch
mism
niece
nieto
poc
pelt
ranger
suther
tuls
taco
wires
witty
wesley
yeast
zack
돈
따
브
알
##no
##nity
##nings
##eous
##du
##dar
##york
##fried
##faced
##fax
##kovic
##47
##bol
thune
thirst
##atal
##enghi
##eder
##orical
iniesta
toome
##isen
##elia
stil
##utive
##leader
##amar
##igating
heidi
isle
sauc
##imi
shing
##seva
##illes
##estones
chave
cone
haj
haider
##ivist
notch
dew
##arto
unres
unaff
##osi
abbre
##unks
spat
##astical
##abolic
##endra
offender
compat
compounded
brav
manor
outn
amber
amtr
##anska
grays
grams
perks
timeless
evers
expanse
marion
marking
marleau
##ishment
contending
disk
fein
blument
blanch
##ogyn
##ogram
##intseva
##assi
##assing
carve
interfer
myhr
flair
flaming
paralysis
mayo
muir
impet
donating
remix
ministr
highs
brokered
guessed
surpl
##azer
emulate
img
imb
slash
slapped
basil
baseless
vein
bele
autopsies
curse
curled
##yshell
restitution
putintseva
raul
filtered
swinton
edit
steamed
modifications
##renheit
wald
waltz
blackstone
loom
loaf
financier
humming
midwestern
paste
systematically
skysc
authorize
recorders
glor
programmers
pax
155
balloon
apost
faction
larson
30th
convict
ironic
connolly
millimeter
culturally
##queen
freight
buyouts
supervised
25th
misogyn
166
165
firma
funerals
muster
ersk
panaman
conservatorship
gareth
furst
versace
envy
berm
heartbreak
purported
biopsy
contrasts
vanilla
wilderness
cannon
environmentally
wrongful
mickey
maternal
matteo
seriousness
renaming
bowed
confirming
strategically
romero
ranges
microbi
savage
1956
riddled
ticketing
reminders
navigation
ramifications
renee
promoters
1946
consequential
julio
##하게
rescuers
lunchtime
brightly
tiebreaking
recruiters
jerk
sculptural
deduct
##friends
bulg
bulld
galax
controversies
sweetness
piercing
visionary
tanzan
radicalized
faithful
clarified
daraya
529
reconn
teddy
rabbits
mechanisms
cosell
laufer
rotten
penthouse
graceful
channeling
cummings
tsun
warsaw
trickle
tackling
paving
718
1913
luckily
allev
tolerant
transcare
summons
ricco
overhauled
nervously
nestled
portfolios
dwyer
##uyu
##chenko
coincident
interpretations
alarms
recreate
ghosts
havoc
fiddle
plainly
disparate
lagging
sparring
privileges
deliberations
enthusiastically
perpetual
accelerating
ruther
bicycles
entrepreneurial
lampard
contemplating
outfitted
flanked
bucking
bruising
moisture
curveball
demolition
narciss
smoky
cecil
culminated
waning
trimmed
clemens
gotham
disproportionate
impaired
condemnation
pimlico
sylvia
najib
zarif
improvisation
vernon
우리
emblematic
obsessive
swirling
dizzying
tantalizing
hovering
notoriously
masculine
barricades
unimagin
##hardt
prodig
unequivoc
fahrenheit
##lassified
axelrod
redevelopment
homosexuality
jacqueline
cattelan
blistering
tycoon
houdyshell
wainwright
embroiled
pellegr
writings
awakening
ottolenghi
airdrops
irresponsible
infuriated
entourage
avocado
chibok
adrenaline
saracens
ehrenreich
maccagnan
velasquez
mumbai
hepatitis
sutherland
toomey
chavez
amtrak
blumenthal
myhrvold
erskine
aub
bened
bae
baham
ether
eerie
gand
gues
hale
humph
jocke
kot
kern
lid
lister
lolita
mia
naw
npr
rak
rocked
sow
siding
siber
tuck
tilt
vests
zac
zig
계
데
예
##aus
##rit
##uve
##del
##dia
##ll
##jin
##cross
##cases
##vskiy
##wen
##kal
##xter
##져
##거
##bid
##belt
thief
##inum
##onci
##orne
##arus
##isman
##asa
##asan
##entine
##elines
thatcher
stree
stare
stinging
forear
##olics
##olves
beards
bemo
shannon
asians
withstand
##then
frivol
##illet
neur
tramp
tristan
hait
haired
haunts
noticing
prodd
suhr
##artan
unab
##oslav
abiding
##ifa
##iffer
spice
spider
##udging
##anti
##ieved
afro
compares
libel
brakes
bruy
agon
recoll
##ipa
resale
drained
drills
peppers
##awi
eva
overre
poles
polanski
disli
disintegr
##elyn
stringer
queries
quasi
colangelo
teet
accents
acconci
copping
roh
invoke
invites
flir
elk
poking
poets
everl
evergl
thrived
boil
##loe
makeover
##wealth
defeats
insul
dayton
seng
##onson
emi
emmy
discord
barneys
persisted
farber
subways
curly
curbing
##bred
redef
fewest
milton
campaigners
concur
chartered
profiles
filter
esque
swamp
swims
builders
viability
calib
collided
steenkamp
payne
specified
leth
majorities
paterson
taillon
skirm
glanced
changeup
stepson
stepanek
##rington
ledger
competence
solace
mozz
photographing
informing
informant
##ractable
connell
condos
entertained
cutoff
murals
institutes
revoked
limbs
divine
grandma
closure
138
fungus
hostilities
enclosure
nonstop
denounce
uncover
bader
hamburg
compliant
civilization
##shed
palms
riches
baltic
##uffs
suns
aliens
optional
vera
veron
celebratory
inspections
determines
berkshire
gallons
rockaway
responsive
pretending
pretrial
softball
embold
wooded
commonplace
robby
separates
discoveries
telen
totaled
precincts
lifts
mccl
diets
documentaries
contempor
correctional
senses
##olester
bandw
vacated
325
cables
##bbed
spreads
330
kimmel
embraces
papua
shrine
aspire
macro
heroine
shelton
doctorate
bolt
scenic
venerable
obliter
furnished
rogue
durable
reinvent
outlier
reputations
orchard
bulb
##garner
substantive
breatht
ghetto
subspec
tallest
overlook
switches
1933
comparatively
kirch
mechanic
sequences
cosmet
forecl
fledgling
dimensional
pleasures
850
foam
tails
punishments
sirens
affiliation
calmly
styled
tackled
thankful
lesbos
desktop
therapists
laurence
overlooks
flashy
##aguered
astros
aesthetics
resonates
levi
harshly
lavender
diminish
loren
cornyn
breaches
##abulary
sailor
salvage
napa
shielded
forecasting
perpetrators
부모
kenyans
liquidity
consolidated
tempting
spoil
##bridger
armenia
ceramic
ascend
constituency
clutch
rusbridger
livelihood
conjunction
ackerman
concentrating
brigade
jubilant
alexandria
unwillingness
maiden
mclaugh
unsettled
bertens
andersen
ineffective
ordinarily
quintess
showcases
showcasing
tilted
winters
meadow
supercell
hobbs
automobiles
tidy
cohort
adolescent
bumgarner
exacerbated
cushion
induced
dysfunction
chalk
weinberg
unicorn
brasilia
pesticides
ambiguous
canvases
anesthes
영재반
steroids
anomaly
instructors
antibiotics
zedong
cravath
duchess
vinci
vigne
futuristic
melancholy
pedigree
doctrine
##isciplinary
vasilevskiy
adjoining
michaels
seinfeld
peculiar
lonsdale
ministries
beleaguered
skyscrap
furstenberg
rutherford
streep
bruyne
disliked
everglades
breathtaking
ave
biting
bots
bounds
bouts
cay
dund
dhabi
ecc
fay
g4
gases
hiat
hugging
jolly
kro
korn
lv
lula
moth
nath
nudge
ode
poo
pies
pans
pounded
roc
sart
zukerman
라
€5
##non
##tes
##tops
##technic
##eau
##pour
##iu
##joo
##cers
##cation
##corn
##vest
##wrec
##mir
##finger
##교
##층
##크
##erel
##eny
##eslam
##orial
inund
##aru
##arova
##itiously
toasted
##ouard
##icine
##entos
stints
strolled
forsy
foresh
##urg
reint
reilly
hek
heath
ism
sak
saute
shim
shak
asph
##terman
##cht
##chard
alas
fris
##estine
chipped
conform
conway
console
nemes
tres
haas
##ivable
##opoulos
dej
##alli
unil
unins
unrespons
lep
##univers
plow
##mentation
sped
spong
splin
##outed
##gham
##apidated
yearlong
##endo
clams
clinging
gove
herbert
outgoing
##ucking
##iceps
grit
grig
gripping
perils
thereafter
evgen
evasion
crump
disav
discharge
sci
##ptively
strands
carriage
accr
coherent
roach
roiled
joints
invari
invoking
elaine
parcel
##luded
mayonna
relinqu
##gren
##icker
caller
wrink
wrought
##ooky
dons
donah
bohn
##raf
guin
endlessly
downloads
##weez
regents
memos
##venir
##ollen
transist
transitional
handsh
clement
putnam
sociologist
heady
swollen
buildup
delinqu
souvenir
payout
harden
speculate
speculative
salinas
passive
props
infract
marketplaces
sharper
blackness
##gins
loads
halting
debil
summed
glaring
angst
terraces
##plan
homophobic
fallon
freeing
##ruz
cait
##coat
generosity
mcgu
booker
lowe
portrays
capitalization
forehead
urges
ernie
audra
volcan
discusses
179
hamburger
complied
palat
treacher
periodic
deadlines
archet
verlander
fairchild
hallmark
hoax
predatory
developmental
ordeal
boyce
brownstone
bloodshed
telemed
microw
liberated
saleh
melan
melinda
roberta
bombed
##ilingual
masterpieces
examiners
permitting
ensl
standardized
wilmore
textbook
godard
tuning
valleywag
adjunct
kimchi
cooling
90th
meaningless
complicating
seatbelt
scoreboard
enjoyable
crypt
macar
arranging
1941
queensland
suck
understated
lunches
maxwell
picturesque
exercised
sanction
vulgar
bleachers
ringing
randalls
libraries
motivate
motivations
prescient
royalties
##었
cartels
##록
confrontations
darnell
##동
translator
reversing
631
wrestlers
conspiring
##행
trendy
rugs
indexes
##zyk
nbcunivers
evaluations
abdeslam
vocabulary
cheeses
cruises
guessing
dilapidated
coward
depressing
catalonia
reluctantly
rawls
##folk
hugo
vibr
flashes
pistons
hubs
huber
convene
neutrality
cinemat
##aggi
piper
diminishing
perplex
fetal
brilliance
cesar
dyed
bursting
conservationists
upgraded
hulking
yemeni
crawl
hesitation
fractures
ounces
##럼
##렇
sparrow
replicated
obliged
shameful
regretted
evacuate
grabs
schneider
tattooed
##opedic
kathryn
stairway
motorcade
dashboard
lacrosse
dignitaries
vendor
hammered
polytechnic
##lowe
seamlessly
drowning
clauses
solicitor
sewer
stevenson
malaysian
vividly
implemented
것이다
##적으로
briggs
mathematical
smokers
lenient
sturgeon
clooney
margot
mclaren
cosmop
ripple
ardent
accreditation
hormones
서비스
abundant
gowdy
anatom
wasser
bookstores
orphan
unraveling
obstruction
unrealistic
emptied
biotech
때문
frogs
rupert
invalid
disposal
fattah
gavin
shabab
##된
splendid
많은
shepherd
truman
infringement
ailments
cessna
crocod
terex
seizure
plumbing
autographs
renegoti
alessandro
uptick
flamboyant
glyph
engulfed
plummeting
sweatshirt
botanical
mungiki
nitrate
thyroid
airspace
kensington
tucson
brendan
ammonium
unreasonable
reaffirmed
tkach
desegregation
emojis
unexpl
slippery
spiked
lochte
toulouse
repellent
repertoire
whispered
tulsa
mozzarella
subspecies
mclaughlin
hiatus
asphalt
unresponsive
invariably
mayonnaise
telemedicine
nbcuniversal
a3
aiding
cages
dab
dort
dome
dice
gps
jams
kib
kep
kung
lp
lena
mazz
noo
necks
osh
pi
pina
pads
qadd
rhe
tp
ticked
tisch
uh
uz
ww
wired
yon
zub
너
€2
##aise
##aerts
##nals
##pik
##rams
##uiz
##sher
##lestone
##hael
##will
##mh
##kick
##xing
##ximate
##력
##ᅯᆫ
thib
##eres
##inen
##inous
##eson
inward
##aris
##itively
oft
##elve
foray
##acas
##olini
##olulu
beau
reins
shoved
washer
##verted
##thood
frantically
##esta
chord
chords
chloe
conqu
hauser
##andering
##agl
##agos
pry
##usanne
##ivik
##ateurs
weinstein
byproduc
leased
orpik
##uned
spying
spices
sphere
##isting
##ghe
##ieger
newyork
cline
afoul
compounds
compiling
liking
briles
bracing
brigham
brennan
herm
herbal
manny
manjoo
enables
outshot
amir
203
wills
perdue
sok
megan
twelve
##ibles
peop
##ignon
##odge
##ondo
blink
strap
justification
interface
##ensual
##umpy
##manuel
roam
roch
commons
commands
##ovsky
precheck
prelude
paramed
parsons
finisher
reliability
mueller
impatient
wraps
wrapping
underp
underpin
highways
demoted
runways
wares
reggae
insecurity
winfrey
##neg
goodness
bananas
coron
corro
idle
transmit
handp
leguiz
subl
concord
nora
realism
simulator
breivik
airing
cald
creams
edmund
##verson
steaks
modigl
servants
speck
numb
powerfully
proportions
menstr
menacing
infor
infusion
sixty
##ews
##ietro
morally
colleg
programmed
controllers
##iminelli
convoys
##affe
##pora
presses
pressuring
likeness
solomon
lausanne
boardwalk
gunned
mcqueen
condoms
regulating
devine
devils
revision
revivals
dividing
juarez
injected
misuse
capitalized
legalize
spacex
##eteries
snell
latvia
eradic
audible
momentous
angelo
combust
401
distill
eleanor
battal
archer
christoph
##headed
stockholders
songwriting
fairfield
##ijk
sweeney
multiy
halluc
scrum
forwarded
settlers
pleasing
berries
luongo
assisting
purvey
biennial
displeas
honolulu
malone
malaria
illust
tenuous
artistry
premises
catwalk
widad
util
migrated
##obic
spanning
이런
##maid
320
towel
splashed
cabins
outsour
screenplay
baton
theresa
rubenstein
##rami
tendon
fueling
340
dissident
tasted
catholics
kobani
chobani
##zzi
lucy
jimenez
sucked
concluding
podcasts
distributing
skew
##각
sarc
pregnancies
circumc
marcos
synonymous
tempered
jamison
gaines
ingrained
strikingly
lydia
cartel
mentors
cypr
rigor
overlapping
volunteered
skeptics
pledging
##들에게
rails
scarves
consciously
laurel
molenb
katy
bouchard
symbolism
siren
cowan
pereira
massacres
etched
gravel
kissed
buzzer
cautionary
astoria
extrater
deposited
diminutive
lionfish
shedding
unfolds
dictate
quotas
aquarium
nutri
breadth
municipalities
bogaerts
pioneered
negligent
##관
naples
implies
screams
hitchens
anchorage
mythology
rooting
guerra
bureaucrats
capsized
astronaut
cemeteries
polarized
transplants
absentee
mendez
gaga
pelham
theoretically
dissatisfaction
adapting
mascot
hashtags
multipl
scratching
worshipers
deprived
aspirational
lionsgate
subtly
bilateral
evangelicals
injections
repayment
heirs
juveniles
kanter
말했다
reshaping
vande
impulses
unfavorably
embryo
illuminated
begging
passwords
drifting
mujah
molecules
shorth
shoreline
chengdu
offspring
chandelier
averse
peanuts
cusp
buoyed
manuscripts
moog
dysfunctional
balkans
plutonium
exasperation
twilight
detonated
explorer
handbags
midsize
mahmoud
refurbished
goofy
filipino
sacrificed
giuliani
bystanders
quarry
artisanal
dobson
entitlement
aggravated
unbeaten
conspicuous
pavement
pronouncements
stymied
schweitzer
hardcover
hasidic
inspirational
synchron
ballerina
camouflage
sesame
rattlesn
cabbage
dostum
herzog
detractors
diaspora
ricciardo
crisscross
superficial
hajj
impetus
pellegrini
humphrey
vigneault
qaddafi
multiyear
displeasure
molenbeek
agh
aph
bik
bung
cough
cyl
dir
dill
dweez
eul
etern
eternal
font
gid
gim
gyn
gaud
gems
hued
kab
kry
kery
kits
kham
karm
lays
nj
nay
nont
pint
pons
paternal
ries
rife
rouse
raza
tand
tuss
vain
vapor
waging
yild
yuk
건
등
##허
##nia
##tl
##rals
##uable
##uquer
##design
##hall
##holic
##hmet
##von
##vell
##wirth
##mish
##mys
##fair
##gard
##gov
##koff
##녀
##족
##beck
##체
##천
##커
##onen
##onstr
##edin
##esl
inception
##arital
##alta
toes
##reted
##eles
whiff
##etter
##acial
##amide
##ersed
reel
reap
reiss
rearr
heed
heel
heap
sap
sage
saints
##imus
frayed
chis
comr
trivial
pritz
##ivism
dequ
exod
exited
suicides
leop
leaking
##unton
spree
##abouts
##antir
cliffs
offending
liabilities
brou
outst
outperform
grun
upend
soothe
mezz
canary
dres
marquez
disse
blatter
playwr
strips
quine
intervals
presse
knox
serp
flipping
flattering
companions
prefect
parap
schl
induce
poke
everton
buhari
attent
attire
imply
imprec
boiler
minh
minerals
centr
smother
smiles
smashing
deprec
##ugs
##uguri
medina
##wei
retali
surre
insulated
memes
daylight
keating
embody
##attacks
maures
slots
##elez
##prom
redesign
concerto
norris
norfolk
stately
simulated
detached
harsher
esco
headphones
planets
conforama
##rolet
airborne
britney
delete
edgar
edouard
severed
steff
stealth
steiner
refn
refoc
postmod
salem
powerless
receivers
cameo
loomed
loading
judd
humili
entries
pao
157
aval
exploding
##played
believer
researched
stepdaughter
119
alma
generously
footn
sanit
milligr
worded
##anni
freud
murm
limp
squat
silently
futterman
funky
forehand
encirc
147
nonvi
probate
178
177
uncanny
unclaimed
badge
negatively
panetta
palazzo
palantir
richly
richman
booed
bookings
replaces
olympian
staffing
legislatures
scratched
##이나
crispr
groundwork
berets
albuquer
copied
##class
soften
softened
hurried
jewels
supers
commonwealth
disappears
suffr
animosity
wrongly
cashin
quebec
negotiator
maternity
##다는
toughness
270
caspers
advertise
torre
darkened
platinum
sensing
sensational
catches
polluted
brotherhood
romine
hairst
psyched
sadiq
kimber
kidding
respectable
behaviors
macron
hunted
rivalries
assembling
lucero
transformative
diploma
distributor
distributors
brightest
broadcasters
palestine
praising
juno
uncertainties
blooming
fantastical
blowers
jamal
resolutions
stakeholders
volunteering
1937
1930
gerry
drinkwater
1929
landscaped
tapit
enormously
grossing
masked
weighs
outpatient
gorbach
calculus
##성
verde
katr
bradford
admittedly
deficiencies
dimmed
nascent
tumble
rumor
rumble
foes
whisked
bartel
mourn
mouratog
jennings
disrupting
relieve
nicotine
therapies
physicist
subsidized
experimented
zheng
horrified
tolerated
transcripts
neuwirth
warns
barclay
ricotta
buzzing
converting
implication
imperative
stalwart
boutiques
deceptive
dakar
gigaby
gesturing
bumped
paramilitary
clerks
rusty
tremendously
doral
overdue
underscore
underscoring
##lieb
uganda
vitri
puzzles
wolff
lagged
grappled
lingered
supervisory
bulletin
alienate
rehearsals
contradict
vigilant
unrelenting
hodg
squeezing
doughnut
observations
excerpt
spoiler
intimidated
booths
constituencies
shinzo
clutching
inhabited
remedies
일반
umpires
congratulated
solicit
clifford
irritated
punctuation
quirk
encrypted
##적인
jurisdictions
sloan
newcomer
nostalgic
retrieved
disgrunt
maiduguri
##중
fulfillment
##birds
rasp
mindfulness
dismantle
mellon
churning
hazardous
motto
upholding
viktor
cohes
apocalyptic
chevrolet
embroidery
inducing
harbaugh
ignorant
intermitt
puppet
underestimated
brawl
twilio
violinist
##winds
tunisia
달러
mcphatter
separatist
scandinavian
rinne
razor
bamboo
pyramid
parmelee
inheritance
riyadh
derivatives
rewrite
bishops
phantom
unrestricted
unsurprising
bazaar
interconnected
cherokee
lichtenstein
surplus
tanzania
tsunami
unimaginable
insulin
debilitating
volcanic
leguizamo
modigliani
shorthand
dweezil
pritzker
dequarto
exodus
playwrights
mauresmo
postmodern
albuquerque
caspersen
gorbachev
mouratoglou
bism
bending
bows
cary
dung
gou
hue
hord
hare
hella
iq
jum
lok
mald
mito
nune
nanny
oste
pn
pied
pang
pines
ranc
riving
ripping
raggi
tass
terse
voll
vines
vouch
vidal
vangu
yves
zou
zam
헤
##tree
##pot
##rating
##dt
##hands
##vable
##wig
##word
##wash
##felt
##zky
##표
##eren
inaction
##arro
anoint
toby
##icidal
##idis
##idad
##elo
##elight
##elets
##eliness
##eco
##ecoming
##otch
onerous
stances
stoke
stacks
##utting
##uttering
##amoto
##igg
##igans
beads
heff
##irim
shre
shimmer
asher
atkins
atrium
##chond
##thal
algae
frail
frug
frenz
chau
chants
chaff
cheryl
chatted
cholester
traps
hairc
##ummer
##usa
##ainable
notley
dexter
hasten
##arte
##iese
##ocrats
uninter
abram
abreu
abedin
plague
acosta
##ustic
##ighting
##apr
##akar
newt
clicking
offend
##ellations
##geois
brim
bricks
brighter
manus
mango
agony
##ipers
megyn
intuitive
twitch
##iba
peered
thereby
incurred
overp
marnie
discharged
strive
quake
##inty
##asson
careless
interd
##ensky
joko
flocked
elise
schn
indel
indyc
relay
##gression
undone
backer
consensual
imped
getaway
phony
helmin
throne
boiling
bohem
brody
guzman
demag
runaway
syner
medley
##iera
emmanuel
knowingly
veered
streisand
mused
greeting
##liness
transp
sub2
##bright
##ahar
statistic
respir
respite
##enei
harr
swapping
visuals
steyer
payoff
salute
passer
##ucket
operatic
locking
blackout
communism
midr
taunton
debra
costco
approximate
ideologically
sandals
127
sundance
caj
solos
generators
descending
chrom
equitable
formative
electr
mcn
mcf
immac
beginnings
portable
murdo
revamped
lima
squid
squandered
juvent
exclamation
168
167
journals
mustafa
##apeake
encycl
142
burge
burling
burlington
breakaway
badred
palais
camden
holistic
castillo
distillery
opting
texan
fearless
staffers
sweets
saturn
orderly
heartfelt
##ronn
woodbine
wildfires
paulson
photographic
constructive
##worked
borse
raphael
soured
ethere
routines
60th
remembering
veterinary
##imburs
diarr
surrounds
310
constituted
births
punitive
willingly
stationery
pollsters
safeguards
logs
qualifier
arabian
commercially
pacing
flagged
sadik
jefferies
birdies
savior
savannah
hyde
entertainer
egyptians
lester
enjoyment
federally
aspen
rowe
karachi
mutation
mutually
okc
375
kopp
falun
litany
420
bodily
##지는
hawth
appropriation
tweak
anonymously
succeeding
elevators
parenting
1936
persuasive
rousing
modestly
gaping
webster
1928
tapest
roofs
##들을
flatb
fearsome
tyronn
osaka
anticipating
padilla
blasting
pacifica
apologies
apologizing
whisky
disclosing
ruiz
carrot
##hrer
unwel
attribute
pillows
corresponding
cheaply
exceeds
exceedingly
가장
sedan
gravitational
submission
streamlined
ricardo
bait
##itolina
fingerprints
zoos
millennium
aquatic
coincide
toxins
nuer
sergey
steinberg
steinhoff
cadets
shuffled
bourgeois
##iladas
disparaging
rouge
ebay
poisoning
satellites
golan
patty
polarization
diverted
hoos
spahn
thorny
못
exchanging
aggrieved
undertaken
scanning
decentral
creeping
##enbaum
ancestry
bruni
dwelling
archaeologists
empowering
beckham
##월
macklowe
hutchins
swallowed
scrutinize
culminating
supermarkets
nordic
enacting
krispy
surrogate
balconies
stagnation
bubbles
##presso
begged
guerrero
discontin
enclosed
dwindled
unravel
pimco
crunchy
nurtured
enchiladas
vernacular
zachary
invaluable
##stadt
cristiano
lennon
yaalon
exhaustion
articulate
incapable
confidant
penetrate
penetrating
dengue
inexper
peppered
horizons
abolitionist
cheeks
silhouette
disguise
sniper
fertilizer
nitrogen
atheist
cascade
gottlieb
sausage
chesapeake
vassar
incarnation
monopoly
flattened
unapologetic
문제
tossing
disarray
antoine
tufts
chongqing
sabotage
dixie
svitolina
warplanes
malevich
tuxedo
eisenman
lyndon
guatemala
immortal
vanquished
odyssey
abbrev
muirfield
galaxy
benedict
bahamas
guesthouse
frivolous
cosmetics
lvmh
foreshad
donahue
guinness
khamenei
yildirim
outstretched
surrept
nonviolent
katrina
mitochond
nunez
rivington
vanguard
cholesterol
helminth
murdoch
juventus
diarrhea
bc
bere
bates
bitt
bitch
cody
dory
dij
dorse
dahl
erosion
fib
gass
gros
guts
haney
iex
kell
kreme
lily
loper
mook
nil
nour
nib
oasis
piers
rite
rund
racks
soto
td
tet
tinder
tivo
trolls
vying
vista
valls
wik
wyn
yesh
새
와
##소
##산
##선
##oil
##ohn
##oids
##eason
##paper
##sins
##ienced
##jour
##comb
##hop
##wo
##wanska
##ml
##mere
##gett
##노
##ᆷ은
##bot
##븐
##erra
theology
##atullah
##esda
##arad
anew
##asher
##asco
##rels
##eliers
##stant
##sticks
##adas
##adors
forgo
##amily
##olete
begu
reince
reimburs
shal
shud
wast
withering
alime
fridge
##ereen
##estial
conger
##ulas
##essen
trin
trill
trunks
haze
##emann
prague
##ivans
notify
butch
bylaw
seizing
unass
unorth
unquest
abound
leht
leaping
plucked
spas
##abel
arrow
##ostic
clicked
offstage
compartment
adr
##gean
lique
lipton
bres
bravo
outg
outlining
agence
alluded
whichever
##iph
##iping
##ipel
soak
solem
pek
peeling
inciting
##avis
overhear
becerra
##ffy
##quiat
disin
carver
cargill
deconstr
knuckle
co2
coated
usage
commuter
joys
flier
secession
parental
relates
mux
backes
bugs
attic
impres
imposes
showered
workload
##ledo
assim
governs
guill
gund
endearing
depiction
warring
warcraft
famer
##azing
##azar
emil
ims
mapping
mahal
sliver
slung
basquiat
##olla
strewn
##ernaut
differs
thinkers
redisc
concili
rightly
righteous
nationalists
realizes
simulation
raff
##eneuve
swarmed
bret
starving
modify
##minster
progression
specim
testifying
humility
midter
morale
affinity
keeper
summar
gluten
153
broadening
billing
billboards
apes
moms
caustic
shortened
pottery
laquan
suscept
footwear
conde
risking
freeman
buybacks
processor
devise
lightweight
goldwater
friendships
squatters
closings
graders
136
erie
erotic
148
volc
momentarily
panor
baluch
##uffle
radwanska
conservators
archdi
treaties
initiate
inspected
villains
##inoza
satoshi
roadbl
groundbreaking
constellation
madden
petals
petitions
heartland
##score
biologists
pictured
vanishing
mali
malicious
worthwhile
springer
bagel
cellular
countertops
exhibiting
imagining
obsolete
baba
alexiev
##recting
complexities
layered
rhubar
religions
kerber
kerrey
broncos
godfather
cooperated
toned
faul
psychologists
spreadshe
sava
hydr
respecting
dissol
shrank
cereal
publishes
okla
falcon
##panz
treasures
doubtful
hungarian
recruiter
grassley
occupancy
##rocket
counselors
thunderstorm
objectives
soreness
mandates
subset
oceans
resorted
tanis
##innen
bells
germain
sticker
stickers
werner
wheeler
rabbin
wrestle
conscient
osama
vocals
fragmented
##구치
crowned
isolate
spinach
whispers
bartlett
jenna
brewer
tackles
vaunted
disruptions
1910
alberto
pumpkin
하는
moonves
pizzas
stalls
stamped
watershed
astounding
gutted
gordie
faulted
hanover
phenom
dietrick
racking
nuis
incorporates
sergei
lodging
hesitated
smuggled
awkwardly
tornado
traits
akron
rattling
slumping
alienating
vigilance
vigilante
poisoned
forums
lipstick
bethesda
paradig
hoover
stairwell
smells
keenly
ripert
remembr
assassinated
reunited
inflamed
sacrifices
pelosi
deadlocked
plaques
duplex
sudanese
hansen
jabs
creep
fondly
ancestral
stamina
##raditional
zeit
relentlessly
miko
infielder
amput
moderates
haggerty
##급
chimpanz
contingency
skiing
scrutinizing
breeders
incumbents
lazard
arduous
incarcerated
khalid
unstopp
않아
##마구치
impairment
dismantled
manifesto
rethinking
enrichment
resettle
hobbled
juggling
juggernaut
aegean
gadgets
microscope
misunderstood
dmitri
pancakes
bacsins
ducasse
rectang
cyberspace
positively
stubbornly
kazakh
sulzberger
reorganization
seminar
##figured
xenophobia
housewives
rupture
disqualified
verbinnen
paranoia
reinstated
elmhurst
vaughn
sincerely
geoffrey
ecstatic
hickey
kumar
johannes
virtuoso
intermediate
schwarz
biscuits
mormon
foreseeable
adorable
paragraph
antigovernment
divestment
necklace
extravagant
livestock
horvath
xavier
confiscated
laplanche
estefan
benefactor
hathaway
야마구치
venezuelan
intertwined
unequivocal
everlasting
inundated
forsythe
nemesis
dortmund
peoples
handpicked
keryn
##hmeti
indycar
mcfadden
badreddine
loperamide
alimehmeti
unorthodox
conciliatory
baluchistan
alexievich
rhubarb
unstoppable
bacsinszky
apar
bain
bley
baum
bikers
cory
cede
dos
dabb
fm
faw
fiss
gers
gidd
hound
hence
hanc
jing
jett
jenner
kem
kus
kios
ls
lull
mou
muss
oman
pest
pony
pinc
sond
sass
sams
sipped
vince
vazquez
wre
wagon
yi
yol
yank
zl
zen
zuc
또
반
승
##ajo
##eiro
##piel
##rates
##uain
##dn
##iards
##lec
##hail
##hool
##fell
##fruit
##gary
##zu
##korn
##kopf
##랑
##타
##죠
##준
##ben
##esigned
anohn
##icable
##idan
##idos
##entin
##ilian
##ecr
wharton
onset
##stall
staked
##ayas
##lean
##leased
##rof
##urys
##igi
regroup
hemp
shiong
alo
als
alison
alonso
frick
fresco
fridays
##illan
chilled
constand
conrad
ney
comscore
haib
hauling
##eming
prism
webb
unice
unapp
unmarked
accepts
##ortment
##antz
##ightly
clustered
aflo
bris
mang
mania
manuela
enrolling
outland
amin
agn
grues
graf
recounts
perl
pervers
perrigo
peralta
cano
canned
resumes
drenched
incur
expands
overste
overreach
marino
contours
croman
crumbled
appel
appalling
nob
noor
noises
scented
feuch
blan
quand
quito
carla
teasing
accol
presley
invaded
flied
elij
eluded
pars
finra
muay
attuned
impass
impasse
helium
underwriting
underrepresented
##ledged
longing
minivans
##erting
guad
gujar
syed
downgr
insec
insular
winem
emit
imams
maim
marker
basir
veil
vexing
disconc
corp
corr
corona
europa
transf
##prime
##bral
turnberry
##yses
businesspeople
filters
essex
nighttime
nightmar
childb
swarm
swirl
lifeguard
breaker
breasts
config
confuse
airways
edelman
starved
executing
reflex
paycheck
promen
##atorium
gotta
protester
pops
popcorn
youngsters
locasc
infighting
receipt
commune
pastrami
untouched
sugary
kindle
announcer
##strasse
believers
124
##ruv
shortfall
waik
jobless
giroud
espinoza
sonic
specialties
massages
landry
devour
golds
goldstein
mercil
miser
legalized
deepen
futile
typing
creatively
unclassified
drawer
circuits
##shaw
panther
panhand
bedrock
trepid
armies
distilled
jeurys
sunken
sunrise
archipel
texans
commenting
varies
replies
replays
##ija
##iji
sweaters
defensemen
multi
deterrent
crispy
penet
envisions
unlocked
gallup
damian
alba
nominal
budding
strauss
dominique
garderen
femme
malib
pickled
husbands
##enaud
wildc
285
characterize
slew
mattes
seminal
##risy
guardia
torment
veterin
diocese
mastery
diversion
dreaming
academia
sprang
sensor
pursuits
ferre
novelists
ensn
ensures
speeding
impacted
fanfare
textured
qualifies
coasters
cabaret
rainfall
appointing
conditioned
##azzi
departures
hygi
olow
emphatic
kimball
757
ratified
analyses
ramsey
murderer
ignores
behaved
pinn
pinot
kohl
choking
referendums
weighted
julius
kelman
warmly
occupants
composing
compositions
scholarly
missionary
auctioned
concerted
henin
joyous
432
skyrocket
bleecker
sweeps
shipwrec
bulgar
galas
temples
mansions
resolving
sweetened
distinctions
renovating
475
ashraf
1931
meaty
sheridan
oceanic
prepaid
felipe
noticeably
scarcely
sequencing
verdi
channeled
dimit
predictably
sickness
groove
loudest
ambassadors
ricky
2025
idealism
seductive
chilean
cherished
submissions
nichols
888
altercation
crystall
stalin
inherently
deceptively
repairing
tubes
dolly
mahrez
abbvie
bogart
validated
dorothy
breaching
bundesl
quantities
cadavers
bourdy
ridiculed
jaros
rothkopf
fractious
gentlemen
napole
sketched
wolbach
randomly
evacue
triumphant
enthusiast
tasked
##matyar
##에서는
garbine
contradictions
dumped
dumping
postpone
suppression
motorcycles
doughnuts
molding
exporters
genesis
databases
allegedly
kilometers
jaws
lofty
botched
intervening
sewing
allergies
bruises
confronts
provenance
heralded
recounting
admirable
celestial
caveat
dumbo
crabs
laptops
jeopardize
harvesting
placid
frenetic
eugen
accredited
persecuted
extradited
patronage
kiir
mckinsey
zoom
oncologist
quadrup
resettlement
ninja
endeav
buoyant
microscop
tacos
rebellious
ruffled
mammoth
lurking
charisma
iguala
grinning
intercepted
disposable
rambis
reichberg
addictive
imaginative
neuroscience
gastro
isabella
kendall
좋
chirico
apprehension
handbag
fulmer
destabilize
bianco
disconnected
whimsical
jasmine
littered
nahmad
pitti
amphithe
higuain
expenditure
glittering
perceptions
lithuan
luminaries
sevilla
humidity
adulthood
enlightened
partisanship
scorpions
##루즈
weasel
arrogant
hypocrisy
크루즈
transgressions
noncompete
eritrean
yusufiy
##mdb
pepsi
bolivia
ephemeral
cirque
bittersweet
middleton
bistro
coincidentally
forearm
kirchner
foreclosed
g4s
hekmatyar
microwave
macarthur
cosmopolitan
rochelle
sublime
gynec
tandem
escobar
milligrams
frenzied
respiratory
okcupid
hawthorne
dorsey
rabbinical
anohni
haibatullah
unicef
afloat
gruesome
feuchtw
elijah
gujarat
locascio
merciless
trepidation
archipelago
hygiene
bundesliga
wolbachia
amphitheater
ailey
cach
ceded
dap
dah
dime
dusk
gurn
gert
gull
geek
hool
ile
jars
jasper
kra
kah
lame
latt
maced
nac
nos
naut
oats
pins
pett
plywood
rink
raged
rolf
rattle
ss
sins
sizz
tending
tattered
tumbling
tusc
trolling
tinted
uri
vene
vestig
wester
zion
zaire
zaha
밴
에
€3
##pie
##ril
##racies
##uition
##iak
##lene
##leston
##cut
##hin
##vio
##mor
##gings
##gang
##kens
##kof
##kowitz
##격
##카
##쿠
thier
##ativity
##edia
##esque
##ority
inesc
##arling
##ouffe
##asia
##icating
##elstra
##etal
##ettered
##otal
##otle
##sth
stokes
##urf
beamed
rez
reit
##irer
##irls
##imov
shov
shaded
shaming
frans
fraser
##estically
chops
##esson
tracy
trappings
hawn
##agi
##aght
##usel
##ppelin
progn
progen
hash
unman
unrec
unavo
plush
plouffe
##antec
##ichai
##endas
clump
gogg
adject
brace
manly
manne
enz
agendas
grudging
recast
reciting
##ubs
peretz
alloc
alluding
repr
uploaded
meyers
meereen
intently
evoked
expatri
##avy
sciss
scaff
scaling
blending
blades
quince
quaker
mona
monc
monso
decay
acclaim
knights
invigor
##angling
##itte
schaght
inducted
indiscrimin
poaching
gett
bettors
##issen
##issette
remarked
##ertown
smol
smear
meddling
warl
warmed
downloaded
defensively
regener
retr
retwe
surfer
insign
kee
keanu
governmental
maatta
veiled
bark
corral
secondhand
grease
farah
##brist
redesigned
concier
static
putts
headwinds
swam
swear
breen
conflu
internship
meta
visium
continents
starz
severity
severance
littlefinger
hardened
hardship
servic
bestowed
##ikori
blackened
blackberry
morissette
##pared
##parable
tao
debuts
##rette
readiness
distractions
##aldo
militar
viewpoint
rulers
cao
parkway
focal
solitude
waterway
footer
##borg
##appers
rounding
mcallister
painters
clears
waiver
taxis
##ographers
safest
snatch
snipp
snatched
benev
easton
##minger
172
hospice
projecting
hamm
bali
template
##umba
immigrated
sunk
sunnis
garza
motions
bitkov
commenters
##holder
210
olympians
effortless
multil
georges
##odeon
admiring
selfish
damien
madame
racec
laborer
unfur
unfettered
hearty
heartbeat
##cloud
hurled
narendra
constrained
avoids
cello
cellar
rodman
rodrigo
girlfriends
derided
##는다
precurs
widened
##steing
utop
indicative
indicators
platini
correctness
communicated
sprung
measurement
blockade
freshmen
ferri
tableau
subjective
fanned
additionally
affordability
logos
logging
faj
faust
adjud
thermost
hyster
hydrop
witnessing
dipietro
dissip
impressions
complicate
murderous
tasty
aspiration
cerebral
brainer
koons
faltered
crucially
nicklaus
podesta
treasurer
occupying
discriminating
##breaks
durst
durability
##ymes
395
contrasting
bulging
tempest
librarian
weathered
folio
succeeds
lyons
honorary
faiths
krak
dramat
tampering
ricoch
yielding
##ienne
kickoff
kickbacks
mcdonough
##blood
rotter
calculation
overtly
dima
viewership
illustrations
nursery
rumored
strode
siris
alcoholic
andrei
accommodating
fundamentals
stunts
tangy
ibaka
flux
fluent
detecting
unwitting
mystical
##interp
1915
aleks
smiley
habitats
sophistication
tragedies
tubs
dearth
nestle
dealership
dolan
inventive
nutr
rackete
obscurity
lorch
lodged
firefly
bassett
gamers
resurgent
deflation
ravens
nikki
rousteing
irrever
orthodoxy
contradiction
buddies
rahm
protege
unchar
reinforcing
kathy
spoelstra
maneuvers
gilles
nathaniel
quartets
duplic
blurry
epicenter
absurdity
cyberattacks
chronically
mulberry
vertig
##얄
hastily
sewage
reproduction
dwellers
zeppelin
archaeologist
pedestrians
climbers
bergdorf
brownsville
bruised
aisles
unleash
mathematic
##theid
energize
admirers
murdering
cecilia
desserts
inconsist
ditches
bogeys
titanic
dawson
staggered
mediator
esteves
astronomical
cortis
gatling
##민
grapefruit
croatian
116th
bolstering
anecdotes
##represent
nurturing
blossom
autobiographical
emblem
morphine
corridors
worsening
brothel
imaginable
pomer
tinker
vieira
notoriety
supremac
jokingly
horizont
uncontroll
xenophobic
aguero
nimble
fervent
hippie
disconnect
##unciation
cullen
endangerment
antiquated
saxophonist
shrewd
symantec
inscribed
fragrances
로얄
sabbath
discrepancy
turinabol
gehry
shredded
##osaurus
schroeder
jellyfish
honeys
lagerfeld
disillusioned
infinite
awakened
houthis
maturity
crescent
eisenhower
nishikori
overpowering
caricature
excursions
kikuyu
repurposed
drizzle
caregivers
mishandled
decriminalization
forcibly
scooter
ausp
kandahar
outnumbered
paxton
alleviate
lorenzo
quintessential
evgeni
mcguire
archetyp
kepler
uzbek
illustrator
cyprus
dissemin
disgruntled
헤븐
bohemian
sadikovic
surreptitiously
bittman
rundown
lehtinen
solemn
susceptible
panoramic
archdiocese
faulk
conscientious
paradigm
apartheid
neymar
outlandish
malibu
olowu
evacuees
inescap
scaffold
confluence
1mdb
baid
bilingual
curing
dway
dannon
eust
eater
etsy
fath
feral
foll
gan
gree
gail
gears
hib
hock
hush
jensen
kut
kud
kup
kosp
kvy
kitsch
lak
lup
mous
moot
pals
paz
pik
rave
rita
riffs
sark
seared
taw
tory
teng
tbs
taps
ticking
vr
wech
xiao
yoo
yose
zer
zab
zoe
요
히
##rx
##uels
##sie
##loth
##lier
##jet
##cio
##hel
##vs
##qa
##wolves
##xi
##xuals
##ᅵᆨ
##개
##40
##bear
##본
##60
##erife
##atin
##enport
##enetr
##inged
inroads
##itiveness
topping
##oum
##elic
##ecc
whitt
sten
stung
##utan
##ayo
##acs
iteration
##olith
##olese
beasts
beige
heeled
sauv
shaved
##chini
alam
##estorm
conquer
##ulman
trenton
haines
hauled
notting
##opath
deference
deacons
hashem
##ooked
##osate
aback
leash
levers
leung
yougov
spars
spagh
##anting
##ighted
##aku
cling
cland
clashing
##ourt
compuls
##herty
liar
brah
bruins
##uced
doha
peripher
uphol
sobbing
intake
canopy
drape
peach
expo
expon
firestorm
overview
mariano
marquis
appalled
disarm
scru
scots
feats
##onder
blitz
blanche
##actory
playfully
strikers
quell
carat
carous
caraman
carhart
colts
himal
decad
##amps
tease
accented
preseason
coch
coop
coined
joon
##ileen
flound
flake
flops
oprah
howell
##itta
pref
preaching
schiller
lawson
##gram
pok
trumpeter
backbone
impacts
impenetr
undermines
betts
courting
remod
boister
beforehand
minib
broom
obey
artich
artisans
##hne
##hness
warheads
downing
downfall
surm
insin
##azard
##ifeh
##attner
imbalance
maf
maest
##itsky
goody
needles
##roski
barri
handlers
legion
takeaway
subprime
curf
redistr
##ahot
milestones
concourse
nationality
charms
professed
rapping
rappers
detox
espresso
headstone
swell
swagger
breit
leftovers
metric
metabolic
creole
edgy
happiest
numer
salam
salted
placebo
valed
chiefly
receipts
midw
keepers
policemen
152
netting
factual
homo
homecoming
davenport
competitiveness
labored
##cox
parkland
ante
generator
waterl
##apple
mcnam
sana
sellars
wallpaper
vicente
paink
waiter
connot
giveaway
policyholders
suspensions
revise
safarova
floats
misgu
misinterp
excelled
snug
encore
146
nonb
frenchman
uncond
hearse
chairmen
negro
jameson
palmy
bedev
camarad
##umbi
##uzzy
arched
bodyguard
windfall
expressive
rebounding
totals
sweating
avery
##afaba
hoard
admon
bergen
berrigan
gallant
athleticism
luiz
predicts
coping
unfazed
##clair
ambush
ambivalent
softening
dispersed
destin
dani
supern
cubes
vanish
crossings
survives
browne
vehement
birkin
restraining
counteratt
festive
rapists
walkway
derives
derrick
liberate
liberating
##abbar
catap
teachings
guarding
routed
mccray
tormented
materialize
babys
pathway
augmented
rhine
rhod
trailers
academically
suitcase
senseless
protestant
partnered
ferdin
ensured
domestically
matine
textures
textbooks
automation
qualification
hairs
ventured
gardener
extremes
montague
montclair
faena
installments
olm
1957
dissu
literacy
touchstone
navarro
driverless
coffers
macri
karim
earthy
shelley
transporting
reduces
421
1943
skinned
skewed
composure
durham
##ymour
tweaked
tweeting
henrik
joyful
narrowing
winterkorn
circumvent
horseback
bulger
appreciative
##uku
webber
nader
nadella
terminated
mcdonagh
##blown
purposeful
wolfgang
masah
listener
yeung
taras
symbolize
upstart
entrants
foe
fascist
##impy
nightclubs
thorne
impeached
tobias
gao
dodge
rookies
jetliner
sedd
horrifying
gilman
neurop
pistach
submitting
crossover
awaits
patriotism
nevins
tenth
hookworm
cassini
fetched
gleason
aquafaba
dietary
ribbons
harassing
진
지역
bogged
whiteside
tamil
ridicule
resurfaced
mildly
braised
blinds
stackowitz
offshoot
entrepreneurship
myths
twisting
revolves
ponder
poisonous
cancellations
dianne
goltz
consolidating
embassies
cynicism
expedia
elliot
beverages
evidently
ceram
unprepared
earthquakes
jamaican
ferraro
rhetorical
unsealed
stephane
congratulate
immersed
mingling
instinctively
empowerment
colonialism
climax
allergy
applaud
cramer
override
densely
porchetta
forbidding
cloak
handguns
sprayed
blancs
embodies
hollen
fountains
ornament
surrendering
psa
ps1
esteem
burdened
##qualified
mckinney
zobrist
maurice
공연
clamoring
defectors
정도
mesmer
siph
blossomed
dmitry
prevalence
turbulence
calderon
implicitly
cleansing
masculinity
scrappy
dribbling
silhouettes
tinged
claudia
burgess
renderings
annoyed
shunned
schatzow
scalp
calamity
kawhi
lauderdale
inconvenience
exorc
orcas
pagenaud
fluctuations
kowroski
noodles
leaguer
monologue
nickelodeon
blatant
congestion
liaison
disenfranchised
hindsight
recapture
scrawled
outscored
perseverance
baupin
lifesaving
villarreal
moisturizer
reinvigorate
unresolved
unabashed
agonizing
sartorial
grigory
glyphosate
byproduct
eternity
giddy
reissued
attentive
humiliating
avalanche
vouchers
overheard
gundy
kazakhstan
hancock
samsung
waikiki
ferreira
dimitri
endeavors
feuchtwanger
gurney
밴쿠
rezoning
concierge
sirisena
uncharacter
faulkner
baidu
dwayne
greeks
kospi
kvyat
spaghetti
caramanica
mcnamara
palmyra
camaraderie
ferdinand
밴쿠버
3d
aedes
bav
bax
cd
dich
dib
dann
diller
dueling
eject
ejection
eruv
fas
fec
fang
gop
gock
hr
hove
hips
hyl
iced
jara
jarm
kes
kuc
kob
lut
lino
langer
lords
matured
maze
mesa
nr
null
ostr
pd
pau
pog
paces
pitting
pfe
rere
rour
rump
romp
sj
sik
siem
tags
vor
vant
wist
wille
wishing
woe
yak
yidd
눈
두
번
처
카
##eers
##ega
##rh
##rong
##rude
##uly
##slist
##jee
##yane
##cell
##vit
##vation
##muse
##gic
##gently
##green
##girls
##kills
##영
##blo
##bble
##buro
##별
thou
##inel
##edo
inland
ingle
ingl
anb
##icion
##recht
##idian
##entious
##elope
whome
whipping
##etric
##otomy
##step
##stream
stabb
##adore
##adona
##lein
##roved
beaming
heist
healy
heming
healey
sapp
shave
ashe
alchem
fray
frig
chappa
hak
hapl
habre
hazy
##umer
notched
weights
weeds
exiting
suicidal
seymour
unv
uniting
unimp
##osure
abou
abdom
ababa
leigh
leff
plahot
spam
spartan
##udad
ari
arises
arpa
##endez
clas
cliche
offensively
afield
aficion
compilation
goats
##ongru
##elles
##ellini
herr
enam
engr
outbreaks
amel
amused
dove
reclus
repe
repris
repaid
reprie
timer
##ibe
dred
dripping
[...]
